{
  "version": "1.0",
  "truncation": null,
  "padding": null,
  "added_tokens": [
    {
      "id": 1,
      "content": "<pad>",
      "single_word": false,
      "lstrip": false,
      "rstrip": false,
      "normalized": false,
      "special": true
    },
    {
      "id": 2,
      "content": "<s>",
      "single_word": false,
      "lstrip": false,
      "rstrip": false,
      "normalized": false,
      "special": true
    },
    {
      "id": 3,
      "content": "</s>",
      "single_word": false,
      "lstrip": false,
      "rstrip": false,
      "normalized": false,
      "special": true
    }
  ],
  "normalizer": null,
  "pre_tokenizer": {
    "type": "Whitespace"
  },
  "post_processor": null,
  "decoder": null,
  "model": {
    "type": "Unigram",
    "unk_id": 0,
    "vocab": [
      [
        "<unk>",
        0.0
      ],
      [
        "<pad>",
        0.0
      ],
      [
        "<s>",
        0.0
      ],
      [
        "</s>",
        0.0
      ],
      [
        "s",
        -2.936136805932179
      ],
      [
        "the",
        -3.134806206399764
      ],
      [
        ",",
        -3.2786305962750273
      ],
      [
        ".",
        -3.498741054910031
      ],
      [
        "of",
        -3.86273245219836
      ],
      [
        "a",
        -3.898182541904882
      ],
      [
        "d",
        -3.92248171169083
      ],
      [
        "and",
        -3.946163530627036
      ],
      [
        "@",
        -4.089800796055213
      ],
      [
        "in",
        -4.091034939743539
      ],
      [
        "to",
        -4.18418285634935
      ],
      [
        "ed",
        -4.301284430316823
      ],
      [
        "y",
        -4.373621989260068
      ],
      [
        "=",
        -4.522954122883538
      ],
      [
        "e",
        -4.527527531769222
      ],
      [
        "ing",
        -4.534393557414122
      ],
      [
        "\"",
        -4.5665354346621605
      ],
      [
        "was",
        -4.860159776011583
      ],
      [
        "on",
        -4.875088856964217
      ],
      [
        "t",
        -4.876901400535926
      ],
      [
        "'",
        -4.98361014365536
      ],
      [
        "The",
        -4.995777463517278
      ],
      [
        "-",
        -5.056883441949763
      ],
      [
        "ly",
        -5.112323271135846
      ],
      [
        "for",
        -5.244790367002961
      ],
      [
        "that",
        -5.261689857249934
      ],
      [
        "with",
        -5.27529206769967
      ],
      [
        "n",
        -5.316315156662164
      ],
      [
        "is",
        -5.359720895363198
      ],
      [
        "by",
        -5.36478141970248
      ],
      [
        ")",
        -5.4244992734058
      ],
      [
        "(",
        -5.4254994818653515
      ],
      [
        "be",
        -5.4661723018289
      ],
      [
        "as",
        -5.467939370379023
      ],
      [
        "o",
        -5.499835050637925
      ],
      [
        "from",
        -5.718889375247283
      ],
      [
        "an",
        -5.762346935418529
      ],
      [
        "his",
        -5.766134101162383
      ],
      [
        "it",
        -5.814206695118278
      ],
      [
        "at",
        -5.82028189434719
      ],
      [
        "A",
        -5.866354891430351
      ],
      [
        "i",
        -5.913392237254735
      ],
      [
        "were",
        -5.916527528288727
      ],
      [
        "he",
        -6.001012619318457
      ],
      [
        "l",
        -6.057024543511487
      ],
      [
        "r",
        -6.087333435621943
      ],
      [
        "In",
        -6.122724155579315
      ],
      [
        "had",
        -6.159845909134429
      ],
      [
        "which",
        -6.196711315541606
      ],
      [
        "are",
        -6.2645523565620564
      ],
      [
        "m",
        -6.292325078666604
      ],
      [
        "1",
        -6.316204971513008
      ],
      [
        "2",
        -6.395286045211744
      ],
      [
        "or",
        -6.41236341264619
      ],
      [
        "h",
        -6.466490670159288
      ],
      [
        "not",
        -6.4680400628814905
      ],
      [
        ";",
        -6.46903337710194
      ],
      [
        "200",
        -6.481438695028853
      ],
      [
        "their",
        -6.491795702092119
      ],
      [
        "her",
        -6.493256348593899
      ],
      [
        "3",
        -6.496168429332949
      ],
      [
        "but",
        -6.50570843628001
      ],
      [
        "f",
        -6.510424957297026
      ],
      [
        "first",
        -6.525293269795551
      ],
      [
        "al",
        -6.534184085868107
      ],
      [
        "I",
        -6.540165224905078
      ],
      [
        "–",
        -6.540167930143074
      ],
      [
        "ies",
        -6.571030880299846
      ],
      [
        ":",
        -6.57325015602072
      ],
      [
        "also",
        -6.589353293734522
      ],
      [
        "one",
        -6.592528182688497
      ],
      [
        "th",
        -6.596679264834481
      ],
      [
        "5",
        -6.603171576979804
      ],
      [
        "S",
        -6.625408431222571
      ],
      [
        "4",
        -6.6426486080017995
      ],
      [
        "have",
        -6.661768979238184
      ],
      [
        "its",
        -6.672188835048685
      ],
      [
        "has",
        -6.7088748764456785
      ],
      [
        "two",
        -6.733259583056071
      ],
      [
        "other",
        -6.741849616343156
      ],
      [
        "who",
        -6.747747573908461
      ],
      [
        "out",
        -6.772092861130201
      ],
      [
        "C",
        -6.77936076693479
      ],
      [
        "He",
        -6.780023186896631
      ],
      [
        "6",
        -6.7886127784693855
      ],
      [
        "this",
        -6.825386567631129
      ],
      [
        "year",
        -6.835843168968699
      ],
      [
        "er",
        -6.848344085899011
      ],
      [
        "en",
        -6.850151776864659
      ],
      [
        "9",
        -6.860637590942114
      ],
      [
        "8",
        -6.870047391124869
      ],
      [
        "time",
        -6.878284520941619
      ],
      [
        "B",
        -6.879846490627176
      ],
      [
        "after",
        -6.899368594990738
      ],
      [
        "c",
        -6.939610311404395
      ],
      [
        "more",
        -6.9526802189510475
      ],
      [
        "It",
        -6.960879885511384
      ],
      [
        "7",
        -6.964260219095363
      ],
      [
        "all",
        -6.995374150405923
      ],
      [
        "us",
        -7.008961217861828
      ],
      [
        "F",
        -7.020632530053464
      ],
      [
        "over",
        -7.044243657856974
      ],
      [
        "w",
        -7.054357240401068
      ],
      [
        "would",
        -7.058913616560481
      ],
      [
        "him",
        -7.079325629960844
      ],
      [
        "T",
        -7.096191742265497
      ],
      [
        "most",
        -7.1015052115753585
      ],
      [
        "M",
        -7.141529790894553
      ],
      [
        "up",
        -7.1488998841122315
      ],
      [
        "b",
        -7.15008428494237
      ],
      [
        "use",
        -7.157625177820178
      ],
      [
        "game",
        -7.165241228683646
      ],
      [
        "201",
        -7.18836907336872
      ],
      [
        "when",
        -7.190064498510018
      ],
      [
        "bee",
        -7.192837286074526
      ],
      [
        "during",
        -7.228028919370954
      ],
      [
        "u",
        -7.231110413174147
      ],
      [
        "into",
        -7.261557760228296
      ],
      [
        "some",
        -7.278066989763109
      ],
      [
        "ary",
        -7.287387646769164
      ],
      [
        "about",
        -7.290762638772247
      ],
      [
        "came",
        -7.296053129209045
      ],
      [
        "season",
        -7.301449033665882
      ],
      [
        "only",
        -7.303502614448321
      ],
      [
        "while",
        -7.310937256116029
      ],
      [
        "three",
        -7.318038920906086
      ],
      [
        "part",
        -7.328325179938479
      ],
      [
        "than",
        -7.328363740165875
      ],
      [
        "again",
        -7.338410558026233
      ],
      [
        "though",
        -7.3458099122223235
      ],
      [
        "19",
        -7.350919383396664
      ],
      [
        "where",
        -7.354271908842123
      ],
      [
        "through",
        -7.356230739762158
      ],
      [
        "cause",
        -7.376217113654142
      ],
      [
        "On",
        -7.378858616110037
      ],
      [
        "new",
        -7.380004039254864
      ],
      [
        "later",
        -7.386227018837347
      ],
      [
        "film",
        -7.397698248887637
      ],
      [
        "she",
        -7.398129979604493
      ],
      [
        "made",
        -7.4083017094903
      ],
      [
        "land",
        -7.437873873304332
      ],
      [
        "name",
        -7.445359700336854
      ],
      [
        "ish",
        -7.449216155161496
      ],
      [
        "199",
        -7.454219025514453
      ],
      [
        "song",
        -7.468083643737183
      ],
      [
        "release",
        -7.47760201440493
      ],
      [
        "U",
        -7.486035785093386
      ],
      [
        "number",
        -7.489590935324192
      ],
      [
        "work",
        -7.496601098217636
      ],
      [
        "000",
        -7.497064869162828
      ],
      [
        "New",
        -7.499193128040007
      ],
      [
        "such",
        -7.499974385894456
      ],
      [
        "under",
        -7.501323321270719
      ],
      [
        "can",
        -7.501769471464716
      ],
      [
        "man",
        -7.50335672445771
      ],
      [
        "well",
        -7.509747075971041
      ],
      [
        "second",
        -7.51099647402511
      ],
      [
        "follow",
        -7.516368400539326
      ],
      [
        "This",
        -7.523862445159389
      ],
      [
        "able",
        -7.526649844405997
      ],
      [
        "R",
        -7.531464356375529
      ],
      [
        "album",
        -7.533662387175981
      ],
      [
        "before",
        -7.54182015657953
      ],
      [
        "play",
        -7.557992793465479
      ],
      [
        "un",
        -7.561412585374174
      ],
      [
        "tween",
        -7.5621214181302845
      ],
      [
        "ever",
        -7.563212625556674
      ],
      [
        "re",
        -7.5735023262566745
      ],
      [
        "end",
        -7.576013671500769
      ],
      [
        "being",
        -7.59253253798306
      ],
      [
        "like",
        -7.596653664460273
      ],
      [
        "D",
        -7.597652188733681
      ],
      [
        "them",
        -7.600789369274536
      ],
      [
        "ity",
        -7.61156498766339
      ],
      [
        "E",
        -7.61743847352186
      ],
      [
        "ship",
        -7.627010461415474
      ],
      [
        "State",
        -7.633862281285614
      ],
      [
        "state",
        -7.635056757103945
      ],
      [
        "known",
        -7.6385757829676155
      ],
      [
        "O",
        -7.6396593708841785
      ],
      [
        "there",
        -7.639997854363038
      ],
      [
        "N",
        -7.640030699644451
      ],
      [
        "includ",
        -7.645289571049901
      ],
      [
        "day",
        -7.647199800192157
      ],
      [
        "both",
        -7.648581190314169
      ],
      [
        "P",
        -7.652673944468672
      ],
      [
        "ries",
        -7.672451036954412
      ],
      [
        "mber",
        -7.673322419450895
      ],
      [
        "aid",
        -7.673933148835336
      ],
      [
        "/",
        -7.678189053753115
      ],
      [
        "centur",
        -7.6797924937637285
      ],
      [
        "episode",
        -7.687808383013019
      ],
      [
        "record",
        -7.688383525278329
      ],
      [
        "round",
        -7.689530610598084
      ],
      [
        "—",
        -7.694989448009717
      ],
      [
        "Unit",
        -7.695648047694139
      ],
      [
        "18",
        -7.7000890464230665
      ],
      [
        "K",
        -7.702775662020702
      ],
      [
        "found",
        -7.703921397218161
      ],
      [
        "show",
        -7.716269313599534
      ],
      [
        "20",
        -7.729353995426301
      ],
      [
        "many",
        -7.73584713356609
      ],
      [
        "form",
        -7.743268807960983
      ],
      [
        "four",
        -7.769555160258559
      ],
      [
        "After",
        -7.776966066902026
      ],
      [
        "long",
        -7.778692794259795
      ],
      [
        "10",
        -7.7839325279372735
      ],
      [
        "high",
        -7.787062686664535
      ],
      [
        "American",
        -7.788870794326198
      ],
      [
        "ce",
        -7.789236388146212
      ],
      [
        "force",
        -7.791047663087787
      ],
      [
        "line",
        -7.792075852726861
      ],
      [
        "area",
        -7.797436984434517
      ],
      [
        "near",
        -7.809569654050815
      ],
      [
        "H",
        -7.809904700490296
      ],
      [
        "large",
        -7.811330659354775
      ],
      [
        "ten",
        -7.816226985236961
      ],
      [
        "final",
        -7.817344269234839
      ],
      [
        "back",
        -7.821456873446882
      ],
      [
        "g",
        -7.824843073393579
      ],
      [
        "severa",
        -7.829717744077693
      ],
      [
        "remain",
        -7.8318523298018485
      ],
      [
        "did",
        -7.846392518749278
      ],
      [
        "could",
        -7.8472553621945575
      ],
      [
        "12",
        -7.847532218568494
      ],
      [
        "place",
        -7.849990270799425
      ],
      [
        "base",
        -7.863422273982017
      ],
      [
        "team",
        -7.866587667514996
      ],
      [
        "0",
        -7.867955413849658
      ],
      [
        "self",
        -7.871668455457726
      ],
      [
        "k",
        -7.876735071672794
      ],
      [
        "Brit",
        -7.879225737074928
      ],
      [
        "may",
        -7.880711001263933
      ],
      [
        "arly",
        -7.885341454086817
      ],
      [
        "way",
        -7.885668802335006
      ],
      [
        "how",
        -7.894867828355242
      ],
      [
        "along",
        -7.895861104072855
      ],
      [
        "character",
        -7.896421041306651
      ],
      [
        "She",
        -7.898083648706077
      ],
      [
        "L",
        -7.899207717346291
      ],
      [
        "city",
        -7.913636598294499
      ],
      [
        "each",
        -7.917237877584861
      ],
      [
        "original",
        -7.926108515262596
      ],
      [
        "side",
        -7.928783838505394
      ],
      [
        "player",
        -7.928934059054555
      ],
      [
        "16",
        -7.933928051523364
      ],
      [
        "same",
        -7.939454207436092
      ],
      [
        "age",
        -7.944094107726375
      ],
      [
        "May",
        -7.945871930378302
      ],
      [
        "people",
        -7.947918938687582
      ],
      [
        "million",
        -7.948987914591401
      ],
      [
        "ember",
        -7.951427675739195
      ],
      [
        "move",
        -7.9532485195273015
      ],
      [
        "15",
        -7.955556116870614
      ],
      [
        "km",
        -7.958778520581527
      ],
      [
        "life",
        -7.968482796209456
      ],
      [
        "War",
        -7.972527017507545
      ],
      [
        "um",
        -7.97528648750234
      ],
      [
        "down",
        -7.976079400207472
      ],
      [
        "describe",
        -7.97919640571779
      ],
      [
        "John",
        -7.979767175206851
      ],
      [
        "unti",
        -7.9841922557570495
      ],
      [
        "August",
        -7.9890580850581285
      ],
      [
        "these",
        -7.99890559786493
      ],
      [
        "any",
        -8.001586309327248
      ],
      [
        "support",
        -8.019247155071291
      ],
      [
        "main",
        -8.024647837921336
      ],
      [
        "le",
        -8.029851016446084
      ],
      [
        "less",
        -8.03557528615346
      ],
      [
        "%",
        -8.03696284492508
      ],
      [
        "group",
        -8.037501527743608
      ],
      [
        "194",
        -8.040383037982217
      ],
      [
        "receive",
        -8.042803993495971
      ],
      [
        "men",
        -8.043720900094307
      ],
      [
        "Al",
        -8.051067679473327
      ],
      [
        "G",
        -8.051345655300313
      ],
      [
        "German",
        -8.056516953250584
      ],
      [
        "ber",
        -8.0589373960906
      ],
      [
        "what",
        -8.059220449340351
      ],
      [
        "World",
        -8.061103616224988
      ],
      [
        "198",
        -8.063027693605779
      ],
      [
        "old",
        -8.067498599804232
      ],
      [
        "music",
        -8.072695051661455
      ],
      [
        "own",
        -8.073934381265142
      ],
      [
        "p",
        -8.077010923121321
      ],
      [
        "five",
        -8.079017240631575
      ],
      [
        "single",
        -8.080124314495917
      ],
      [
        "result",
        -8.08465718892398
      ],
      [
        "ook",
        -8.0858093500048
      ],
      [
        "lead",
        -8.087792933168718
      ],
      [
        "appear",
        -8.088599969936581
      ],
      [
        "take",
        -8.089807297430777
      ],
      [
        "field",
        -8.08997107874723
      ],
      [
        "ry",
        -8.091044996429375
      ],
      [
        "late",
        -8.09487114261379
      ],
      [
        "II",
        -8.095836622392538
      ],
      [
        "off",
        -8.097130747224298
      ],
      [
        "W",
        -8.100549769996594
      ],
      [
        "attack",
        -8.108976739735482
      ],
      [
        "feature",
        -8.110931109904442
      ],
      [
        "196",
        -8.111048721515346
      ],
      [
        "order",
        -8.111720165727402
      ],
      [
        "continue",
        -8.114676039968694
      ],
      [
        "start",
        -8.117196573019228
      ],
      [
        "11",
        -8.119297147332967
      ],
      [
        "June",
        -8.120934046381592
      ],
      [
        "point",
        -8.124626209340725
      ],
      [
        "title",
        -8.131803745746883
      ],
      [
        "now",
        -8.135176751798587
      ],
      [
        "ic",
        -8.135925027462356
      ],
      [
        "Dur",
        -8.138754584268804
      ],
      [
        "since",
        -8.144098247393595
      ],
      [
        "specie",
        -8.144987428423677
      ],
      [
        "small",
        -8.145140400678205
      ],
      [
        "South",
        -8.146793216566078
      ],
      [
        "17",
        -8.15636240253284
      ],
      [
        "197",
        -8.162196529595132
      ],
      [
        "famil",
        -8.162896164148197
      ],
      [
        "will",
        -8.16448256826136
      ],
      [
        "war",
        -8.166400623902511
      ],
      [
        "last",
        -8.171833366453809
      ],
      [
        "North",
        -8.175420620776862
      ],
      [
        "consider",
        -8.17746712329626
      ],
      [
        "world",
        -8.179546587910732
      ],
      [
        "set",
        -8.180958570724993
      ],
      [
        "gan",
        -8.182079493421693
      ],
      [
        "week",
        -8.183983484762805
      ],
      [
        "water",
        -8.187141699872617
      ],
      [
        "Octo",
        -8.187929025139582
      ],
      [
        "system",
        -8.190950733588336
      ],
      [
        "home",
        -8.193006531346159
      ],
      [
        "go",
        -8.19338532965725
      ],
      [
        "$",
        -8.194051756399622
      ],
      [
        "return",
        -8.200034289661698
      ],
      [
        "13",
        -8.201628865040608
      ],
      [
        "complete",
        -8.203857883363131
      ],
      [
        "[",
        -8.214186661785046
      ],
      [
        "]",
        -8.214186661785046
      ],
      [
        "role",
        -8.214293689153099
      ],
      [
        "rote",
        -8.214637801403498
      ],
      [
        "ril",
        -8.220244312334078
      ],
      [
        "calle",
        -8.220564560806483
      ],
      [
        "due",
        -8.221223101549473
      ],
      [
        "14",
        -8.221550547013784
      ],
      [
        "child",
        -8.223809555389234
      ],
      [
        "direct",
        -8.225745447903707
      ],
      [
        "30",
        -8.22833755329129
      ],
      [
        "J",
        -8.231484787242364
      ],
      [
        "25",
        -8.232163786156008
      ],
      [
        "They",
        -8.236730030637373
      ],
      [
        "Ap",
        -8.238958801992666
      ],
      [
        "Jul",
        -8.245393757403228
      ],
      [
        "won",
        -8.246989858128941
      ],
      [
        "very",
        -8.254228936620592
      ],
      [
        "town",
        -8.257288439012992
      ],
      [
        "Man",
        -8.259345167355747
      ],
      [
        "death",
        -8.262218972916346
      ],
      [
        "position",
        -8.262406244118576
      ],
      [
        "Engl",
        -8.262527193484162
      ],
      [
        "north",
        -8.263526747220531
      ],
      [
        "book",
        -8.2639001381722
      ],
      [
        "storm",
        -8.267633235673447
      ],
      [
        "house",
        -8.272942457856077
      ],
      [
        "Janu",
        -8.274839706614959
      ],
      [
        "York",
        -8.275605687743257
      ],
      [
        "ver",
        -8.276730506798092
      ],
      [
        "government",
        -8.277224189032342
      ],
      [
        "include",
        -8.279420531808086
      ],
      [
        "left",
        -8.280080216694529
      ],
      [
        "event",
        -8.28204392115537
      ],
      [
        "short",
        -8.285571221973527
      ],
      [
        "head",
        -8.286478372220742
      ],
      [
        "video",
        -8.287280728695912
      ],
      [
        "low",
        -8.289912121686184
      ],
      [
        "March",
        -8.297045663114314
      ],
      [
        "attempt",
        -8.297593374259822
      ],
      [
        "even",
        -8.297862146471171
      ],
      [
        "live",
        -8.307532221438347
      ],
      [
        "third",
        -8.307994947568965
      ],
      [
        "call",
        -8.309181313309416
      ],
      [
        "No",
        -8.310066537266012
      ],
      [
        "six",
        -8.310561089008711
      ],
      [
        "general",
        -8.312320981725733
      ],
      [
        "included",
        -8.31341687372205
      ],
      [
        "south",
        -8.316972496179694
      ],
      [
        "ren",
        -8.319671298651702
      ],
      [
        "make",
        -8.32070325994551
      ],
      [
        "previous",
        -8.321432986556925
      ],
      [
        "change",
        -8.324816708893778
      ],
      [
        "become",
        -8.326128308652272
      ],
      [
        "school",
        -8.336524229019398
      ],
      [
        "195",
        -8.341619021472736
      ],
      [
        "wide",
        -8.34207565350162
      ],
      [
        "ment",
        -8.342882113519492
      ],
      [
        "buil",
        -8.343093149848293
      ],
      [
        "...",
        -8.34520499038285
      ],
      [
        "top",
        -8.352032308703475
      ],
      [
        "version",
        -8.356481524410285
      ],
      [
        "River",
        -8.356919393982999
      ],
      [
        "ation",
        -8.361350279498607
      ],
      [
        "just",
        -8.36596282403104
      ],
      [
        "His",
        -8.36832362376282
      ],
      [
        "month",
        -8.372893307766473
      ],
      [
        "power",
        -8.374669024075722
      ],
      [
        "major",
        -8.37519670353091
      ],
      [
        "produce",
        -8.377612366920342
      ],
      [
        "When",
        -8.37925128161942
      ],
      [
        "best",
        -8.38353377480497
      ],
      [
        "east",
        -8.384574828935786
      ],
      [
        "US",
        -8.386394228772293
      ],
      [
        "fire",
        -8.387579281909655
      ],
      [
        "period",
        -8.391240896356342
      ],
      [
        "2010",
        -8.3987126045185
      ],
      [
        "National",
        -8.4019354613385
      ],
      [
        "thing",
        -8.40236751151983
      ],
      [
        "allow",
        -8.403574637825976
      ],
      [
        "close",
        -8.403698449279961
      ],
      [
        "local",
        -8.406567809823384
      ],
      [
        "list",
        -8.408738918330908
      ],
      [
        "There",
        -8.416837269704885
      ],
      [
        "100",
        -8.417293962892046
      ],
      [
        "club",
        -8.419541983761661
      ],
      [
        "common",
        -8.421431377111677
      ],
      [
        "public",
        -8.421600255587315
      ],
      [
        "still",
        -8.423542195641186
      ],
      [
        "building",
        -8.429085197126714
      ],
      [
        "damage",
        -8.434294106017191
      ],
      [
        "career",
        -8.443522026472575
      ],
      [
        "An",
        -8.449604997602826
      ],
      [
        "Howe",
        -8.450491605815799
      ],
      [
        "provide",
        -8.45290422108532
      ],
      [
        "site",
        -8.453068923645759
      ],
      [
        "half",
        -8.455433718069283
      ],
      [
        "present",
        -8.46320490614665
      ],
      [
        "led",
        -8.465961967772472
      ],
      [
        "often",
        -8.469095077016073
      ],
      [
        "For",
        -8.47069079554577
      ],
      [
        "body",
        -8.473450908946223
      ],
      [
        "Septe",
        -8.473454237129879
      ],
      [
        "company",
        -8.474423625083965
      ],
      [
        "score",
        -8.475862443858382
      ],
      [
        "next",
        -8.476735209447355
      ],
      [
        "few",
        -8.478089768095018
      ],
      [
        "z",
        -8.479253701806119
      ],
      [
        "English",
        -8.485711236749033
      ],
      [
        "nother",
        -8.486280114587696
      ],
      [
        "held",
        -8.486416212484151
      ],
      [
        "By",
        -8.486822184908426
      ],
      [
        "histor",
        -8.48758594467013
      ],
      [
        "issue",
        -8.488210463154218
      ],
      [
        "ground",
        -8.488537139199991
      ],
      [
        "French",
        -8.488632540314846
      ],
      [
        "great",
        -8.489077145149416
      ],
      [
        "level",
        -8.489570000010005
      ],
      [
        "games",
        -8.492153236446232
      ],
      [
        "ive",
        -8.495294607415408
      ],
      [
        "performance",
        -8.495838696866272
      ],
      [
        "run",
        -8.499806020955454
      ],
      [
        "former",
        -8.504194280949067
      ],
      [
        "design",
        -8.50500851588916
      ],
      [
        "create",
        -8.50679933184526
      ],
      [
        "you",
        -8.509581429915919
      ],
      [
        "track",
        -8.510981129693903
      ],
      [
        "full",
        -8.512017357213104
      ],
      [
        "writ",
        -8.514273752350384
      ],
      [
        "One",
        -8.514583858577993
      ],
      [
        "claim",
        -8.518655823905455
      ],
      [
        "white",
        -8.519717646501633
      ],
      [
        "With",
        -8.520810089215283
      ],
      [
        "All",
        -8.526356695621956
      ],
      [
        "ness",
        -8.528884290944433
      ],
      [
        "Division",
        -8.53056133019886
      ],
      [
        "V",
        -8.533243108378896
      ],
      [
        "uch",
        -8.535912185590554
      ],
      [
        "among",
        -8.5361520902342
      ],
      [
        "contain",
        -8.53628518299585
      ],
      [
        "want",
        -8.538924576441088
      ],
      [
        "per",
        -8.538941818225698
      ],
      [
        "Be",
        -8.538988863110468
      ],
      [
        "production",
        -8.541217358079777
      ],
      [
        "est",
        -8.547802361015341
      ],
      [
        "publishe",
        -8.553428400623417
      ],
      [
        "population",
        -8.5549270608679
      ],
      [
        "total",
        -8.555084326513114
      ],
      [
        "church",
        -8.556093382312675
      ],
      [
        "Wal",
        -8.560220680592309
      ],
      [
        "different",
        -8.560567200543716
      ],
      [
        "review",
        -8.561641273171164
      ],
      [
        "suggest",
        -8.562219628446911
      ],
      [
        "strong",
        -8.562363072392465
      ],
      [
        "tropic",
        -8.562549616684796
      ],
      [
        "further",
        -8.56465115668098
      ],
      [
        "help",
        -8.571819958603049
      ],
      [
        "militar",
        -8.57240926133571
      ],
      [
        "similar",
        -8.573378215218195
      ],
      [
        "co",
        -8.573491751546593
      ],
      [
        "According",
        -8.574345620119033
      ],
      [
        "official",
        -8.57581176039724
      ],
      [
        "star",
        -8.575841219990389
      ],
      [
        "Church",
        -8.576232086252045
      ],
      [
        "Cit",
        -8.579566409097099
      ],
      [
        "open",
        -8.584270961046407
      ],
      [
        "particular",
        -8.589928490401501
      ],
      [
        "light",
        -8.58999430668738
      ],
      [
        "&",
        -8.593884823105096
      ],
      [
        "story",
        -8.594706706433822
      ],
      [
        "control",
        -8.600578449070003
      ],
      [
        "ball",
        -8.604614166303847
      ],
      [
        "every",
        -8.605802507285844
      ],
      [
        "League",
        -8.605853993836607
      ],
      [
        "increase",
        -8.609920907076951
      ],
      [
        "air",
        -8.611214057038339
      ],
      [
        "critic",
        -8.611447405416424
      ],
      [
        "defeat",
        -8.613079818673171
      ],
      [
        "believe",
        -8.615525774128717
      ],
      [
        "writing",
        -8.617421018658384
      ],
      [
        "service",
        -8.617998038327023
      ],
      [
        "Song",
        -8.618379484118773
      ],
      [
        "special",
        -8.61927292045759
      ],
      [
        "ebru",
        -8.619929811957217
      ],
      [
        "hose",
        -8.620106802937944
      ],
      [
        "read",
        -8.624323245000618
      ],
      [
        "gave",
        -8.62621170910479
      ],
      [
        "21",
        -8.629599076328155
      ],
      [
        "!",
        -8.632273362103383
      ],
      [
        "Dylan",
        -8.632274217681623
      ],
      [
        "stead",
        -8.633525852889269
      ],
      [
        "28",
        -8.633553304600191
      ],
      [
        "operation",
        -8.63470397170073
      ],
      [
        "human",
        -8.63501620839418
      ],
      [
        "23",
        -8.637673388808508
      ],
      [
        "reported",
        -8.638190571486767
      ],
      [
        "Park",
        -8.641529943595927
      ],
      [
        "50",
        -8.642049292394049
      ],
      [
        "24",
        -8.64596004591866
      ],
      [
        "St",
        -8.648037286733464
      ],
      [
        "193",
        -8.649737580367876
      ],
      [
        "fee",
        -8.651301750358114
      ],
      [
        "unit",
        -8.651390281433478
      ],
      [
        "cover",
        -8.654539768567794
      ],
      [
        "Count",
        -8.65625887395018
      ],
      [
        "plan",
        -8.658921038526
      ],
      [
        "General",
        -8.661541995733483
      ],
      [
        "seven",
        -8.664472812732996
      ],
      [
        "right",
        -8.666419773550409
      ],
      [
        "region",
        -8.667101827662224
      ],
      [
        "action",
        -8.66914069008858
      ],
      [
        "match",
        -8.669339222962243
      ],
      [
        "style",
        -8.671521016938343
      ],
      [
        "Japan",
        -8.672262817923858
      ],
      [
        "face",
        -8.67361091505498
      ],
      [
        "west",
        -8.675866978048342
      ],
      [
        "project",
        -8.684861209216859
      ],
      [
        "America",
        -8.684986676165947
      ],
      [
        "arm",
        -8.686454649604816
      ],
      [
        "songs",
        -8.689460266811139
      ],
      [
        "country",
        -8.689710095449303
      ],
      [
        "lost",
        -8.690334765070947
      ],
      [
        "given",
        -8.690827618655224
      ],
      [
        "22",
        -8.690946940741302
      ],
      [
        "betwe",
        -8.692027627616223
      ],
      [
        "26",
        -8.693737803076148
      ],
      [
        "Whil",
        -8.694248870842276
      ],
      [
        "appearance",
        -8.696543433999153
      ],
      [
        "went",
        -8.700918218130475
      ],
      [
        "development",
        -8.708721098322378
      ],
      [
        "Arm",
        -8.709240824928608
      ],
      [
        "members",
        -8.710633579921371
      ],
      [
        "away",
        -8.71423540761154
      ],
      [
        "x",
        -8.718115460221671
      ],
      [
        "popular",
        -8.718147567071908
      ],
      [
        "days",
        -8.718569060215415
      ],
      [
        "Award",
        -8.718774634574576
      ],
      [
        "Universit",
        -8.721221662499513
      ],
      [
        "West",
        -8.723337067069345
      ],
      [
        "win",
        -8.723704337230231
      ],
      [
        "seen",
        -8.724099961020192
      ],
      [
        "award",
        -8.72677257497815
      ],
      [
        "Dec",
        -8.729181350150743
      ],
      [
        "scene",
        -8.730182523360451
      ],
      [
        "never",
        -8.734303910630576
      ],
      [
        "ally",
        -8.735460192315703
      ],
      [
        "join",
        -8.73745696052293
      ],
      [
        "enter",
        -8.738063799982314
      ],
      [
        "chart",
        -8.739979052600273
      ],
      [
        "Australian",
        -8.740423274602207
      ],
      [
        "writer",
        -8.74125308672787
      ],
      [
        "act",
        -8.741474926480109
      ],
      [
        "train",
        -8.743620973557976
      ],
      [
        "term",
        -8.744787283782674
      ],
      [
        "thought",
        -8.746632749426102
      ],
      [
        "range",
        -8.747017454327317
      ],
      [
        "reach",
        -8.748252643562198
      ],
      [
        "To",
        -8.748611486001916
      ],
      [
        "hour",
        -8.751693679713473
      ],
      [
        "novel",
        -8.752318788386763
      ],
      [
        "27",
        -8.754648071719274
      ],
      [
        "earlie",
        -8.75867888152522
      ],
      [
        "You",
        -8.758826458640755
      ],
      [
        "Ire",
        -8.760104803246097
      ],
      [
        "toward",
        -8.761051577704203
      ],
      [
        "stage",
        -8.761786137732603
      ],
      [
        "island",
        -8.762250918991985
      ],
      [
        "element",
        -8.768945959425272
      ],
      [
        "Black",
        -8.769619003667167
      ],
      [
        "using",
        -8.77107908183126
      ],
      [
        "wood",
        -8.77270001281586
      ],
      [
        "felt",
        -8.774563443352225
      ],
      [
        "route",
        -8.775034910737393
      ],
      [
        "die",
        -8.775977754844345
      ],
      [
        "London",
        -8.776029154693905
      ],
      [
        "ion",
        -8.777732586791846
      ],
      [
        "across",
        -8.778518655399052
      ],
      [
        "good",
        -8.78101785140738
      ],
      [
        "significant",
        -8.781998816364453
      ],
      [
        "turn",
        -8.782286996125196
      ],
      [
        "191",
        -8.782790780617876
      ],
      [
        "ither",
        -8.787185953020032
      ],
      [
        "road",
        -8.791255339659457
      ],
      [
        "King",
        -8.79192781383787
      ],
      [
        "father",
        -8.792179081444509
      ],
      [
        "Australia",
        -8.793358419261855
      ],
      [
        "born",
        -8.794679872194918
      ],
      [
        "ous",
        -8.797245847005243
      ],
      [
        "eight",
        -8.797363507932197
      ],
      [
        "Nove",
        -8.79977272954018
      ],
      [
        "real",
        -8.800115433783933
      ],
      [
        "How",
        -8.801549822923153
      ],
      [
        "important",
        -8.802433432592554
      ],
      [
        "190",
        -8.804903374895336
      ],
      [
        "tour",
        -8.805179479255823
      ],
      [
        "mm",
        -8.806669987082746
      ],
      [
        "v",
        -8.806980693174696
      ],
      [
        "initial",
        -8.807749580047096
      ],
      [
        "gun",
        -8.812555279804627
      ],
      [
        "case",
        -8.813397517951952
      ],
      [
        "aving",
        -8.81421224556699
      ],
      [
        "night",
        -8.814877441899883
      ],
      [
        "television",
        -8.817024139275045
      ],
      [
        "female",
        -8.817304161973953
      ],
      [
        "interest",
        -8.817426611030411
      ],
      [
        "various",
        -8.822266375506736
      ],
      [
        "structure",
        -8.824213028098592
      ],
      [
        "minute",
        -8.824848161930902
      ],
      [
        "black",
        -8.828114673212445
      ],
      [
        "James",
        -8.829845125360837
      ],
      [
        "look",
        -8.83141350857644
      ],
      [
        "miles",
        -8.831620265757577
      ],
      [
        "put",
        -8.839941215155665
      ],
      [
        "successful",
        -8.840036483951351
      ],
      [
        "political",
        -8.840524071657448
      ],
      [
        "does",
        -8.840569115797045
      ],
      [
        "egan",
        -8.841141751470303
      ],
      [
        "Road",
        -8.842554553973297
      ],
      [
        "young",
        -8.84461355969529
      ],
      [
        "ve",
        -8.845869420816282
      ],
      [
        "Compan",
        -8.851262711948245
      ],
      [
        "mid",
        -8.855745643615894
      ],
      [
        "poem",
        -8.86032842657346
      ],
      [
        "pass",
        -8.861926267044629
      ],
      [
        "example",
        -8.862913166835785
      ],
      [
        "construction",
        -8.864380461342275
      ],
      [
        "station",
        -8.868477059560073
      ],
      [
        "bird",
        -8.873278136031573
      ],
      [
        "erie",
        -8.874240419867245
      ],
      [
        "influence",
        -8.874528372931238
      ],
      [
        "effect",
        -8.875806529568484
      ],
      [
        "need",
        -8.87699199389181
      ],
      [
        "should",
        -8.87737049452752
      ],
      [
        "29",
        -8.877947697360726
      ],
      [
        "come",
        -8.878434898187065
      ],
      [
        "noted",
        -8.878523907793788
      ],
      [
        "sent",
        -8.88117235526106
      ],
      [
        "eventual",
        -8.884007793753614
      ],
      [
        "art",
        -8.885328171267648
      ],
      [
        "modern",
        -8.887782391847143
      ],
      [
        "get",
        -8.89044926666406
      ],
      [
        "entire",
        -8.89743445832752
      ],
      [
        "locate",
        -8.89880897159604
      ],
      [
        "involve",
        -8.899926430722545
      ],
      [
        "person",
        -8.902862550784025
      ],
      [
        "represent",
        -8.903148824289783
      ],
      [
        "hind",
        -8.908178071193927
      ],
      [
        "announce",
        -8.908276797086081
      ],
      [
        "40",
        -8.908804967462423
      ],
      [
        "formation",
        -8.911009105167839
      ],
      [
        "eastern",
        -8.913687974430612
      ],
      [
        "band",
        -8.91572241771091
      ],
      [
        "success",
        -8.916066972653983
      ],
      [
        "view",
        -8.917675921137953
      ],
      [
        "TV",
        -8.917969584082797
      ],
      [
        "mi",
        -8.919987096143426
      ],
      [
        "’",
        -8.924428035228189
      ],
      [
        "me",
        -8.925653255081702
      ],
      [
        "Her",
        -8.9282653103337
      ],
      [
        "é",
        -8.929960251564303
      ],
      [
        "love",
        -8.931557792269896
      ],
      [
        "hurricane",
        -8.93273845475419
      ],
      [
        "fall",
        -8.936822938664044
      ],
      [
        "difficult",
        -8.941118265272035
      ],
      [
        "Kingdom",
        -8.941145278996867
      ],
      [
        "debut",
        -8.941798510811838
      ],
      [
        "establishe",
        -8.941976478401095
      ],
      [
        "experience",
        -8.942151114180785
      ],
      [
        "Tw",
        -8.94241871854438
      ],
      [
        "once",
        -8.943271046015962
      ],
      [
        "national",
        -8.943979618300308
      ],
      [
        "perform",
        -8.94514645566868
      ],
      [
        "addition",
        -8.94894291176931
      ],
      [
        "victor",
        -8.949613748067065
      ],
      [
        "yard",
        -8.950771309791136
      ],
      [
        "Care",
        -8.951830558949244
      ],
      [
        "burn",
        -8.953942387144464
      ],
      [
        "mother",
        -8.954502693339263
      ],
      [
        "campaign",
        -8.955731358100792
      ],
      [
        "ical",
        -8.959113212260668
      ],
      [
        "Cup",
        -8.959609420877463
      ],
      [
        "Music",
        -8.960364174340576
      ],
      [
        "highway",
        -8.962060103728025
      ],
      [
        "Island",
        -8.962638090237508
      ],
      [
        "give",
        -8.963715702473106
      ],
      [
        "Grand",
        -8.964857432151698
      ],
      [
        "male",
        -8.966050164296295
      ],
      [
        "Some",
        -8.967730656180754
      ],
      [
        "race",
        -8.968952793019291
      ],
      [
        "figure",
        -8.96943618229875
      ],
      [
        "littl",
        -8.969749834391951
      ],
      [
        "Love",
        -8.972458467044717
      ],
      [
        "wife",
        -8.972466231495286
      ],
      [
        "visit",
        -8.97376381337061
      ],
      [
        "coast",
        -8.97383725599478
      ],
      [
        "peak",
        -8.974064650247968
      ],
      [
        "port",
        -8.975130881482752
      ],
      [
        "goal",
        -8.976663981949015
      ],
      [
        "France",
        -8.977468420995535
      ],
      [
        "stone",
        -8.980091846992666
      ],
      [
        "Battalion",
        -8.981180819925711
      ],
      [
        "king",
        -8.981622749977852
      ],
      [
        "saw",
        -8.983341800332862
      ],
      [
        "reache",
        -8.98357644183316
      ],
      [
        "limit",
        -8.983715571535882
      ],
      [
        "David",
        -8.98426326073098
      ],
      [
        "women",
        -8.987201144815204
      ],
      [
        "taken",
        -8.988203181676415
      ],
      [
        "fight",
        -8.989227190743957
      ],
      [
        "replace",
        -8.9897680596601
      ],
      [
        "capture",
        -8.989769254915888
      ],
      [
        "report",
        -8.990140335965535
      ],
      [
        "study",
        -8.990492112195884
      ],
      [
        "command",
        -8.990560085569612
      ],
      [
        "Brigade",
        -8.992928379967179
      ],
      [
        "class",
        -8.993708058783632
      ],
      [
        "Robert",
        -8.994706812283038
      ],
      [
        "relationship",
        -8.995983027725677
      ],
      [
        "develop",
        -9.001166985424153
      ],
      [
        "free",
        -9.001299388539765
      ],
      [
        "comment",
        -9.00401553223137
      ],
      [
        "rest",
        -9.005954471664214
      ],
      [
        "Roman",
        -9.006360667990311
      ],
      [
        "southern",
        -9.007314079369396
      ],
      [
        "front",
        -9.009370379512932
      ],
      [
        "times",
        -9.00987644524584
      ],
      [
        "officer",
        -9.010331537845946
      ],
      [
        "guns",
        -9.010455135902337
      ],
      [
        "idea",
        -9.012074519787552
      ],
      [
        "wall",
        -9.01391205533374
      ],
      [
        "We",
        -9.014655821252301
      ],
      [
        "ather",
        -9.016306374757761
      ],
      [
        "image",
        -9.017687551884736
      ],
      [
        "Other",
        -9.018121896053323
      ],
      [
        "require",
        -9.022213587641088
      ],
      [
        "William",
        -9.023940345014037
      ],
      [
        "Europe",
        -9.024489005285307
      ],
      [
        "fourth",
        -9.024619411606938
      ],
      [
        "post",
        -9.028381638206202
      ],
      [
        "ar",
        -9.029101174224849
      ],
      [
        "European",
        -9.032063409209972
      ],
      [
        "playe",
        -9.033126005885038
      ],
      [
        "decided",
        -9.033439901688832
      ],
      [
        "member",
        -9.034361788230669
      ],
      [
        "192",
        -9.036160160262
      ],
      [
        "accept",
        -9.036278337731911
      ],
      [
        "shot",
        -9.036996396013219
      ],
      [
        "ley",
        -9.039361686972693
      ],
      [
        "exist",
        -9.039639491680465
      ],
      [
        "ther",
        -9.039857079951279
      ],
      [
        "served",
        -9.041483956526786
      ],
      [
        "heavy",
        -9.041649884452177
      ],
      [
        "process",
        -9.043125041324465
      ],
      [
        "praise",
        -9.043151497149047
      ],
      [
        "problem",
        -9.04757048707721
      ],
      [
        "director",
        -9.048653992473344
      ],
      [
        "White",
        -9.049195657517988
      ],
      [
        "count",
        -9.049685354723524
      ],
      [
        "rock",
        -9.050436587313655
      ],
      [
        "toge",
        -9.051426515056162
      ],
      [
        "God",
        -9.052732334171978
      ],
      [
        "cell",
        -9.053604128960693
      ],
      [
        "individual",
        -9.053829945051046
      ],
      [
        "coming",
        -9.054017709377696
      ],
      [
        "rule",
        -9.054691795189697
      ],
      [
        "stars",
        -9.058412113263344
      ],
      [
        "develope",
        -9.059793216443207
      ],
      [
        "date",
        -9.059847372651774
      ],
      [
        "condom",
        -9.060143784487359
      ],
      [
        "program",
        -9.064102617457579
      ],
      [
        "estimate",
        -9.066138649903179
      ],
      [
        "Royal",
        -9.066610250017234
      ],
      [
        "activit",
        -9.06677191396845
      ],
      [
        "far",
        -9.067633359914726
      ],
      [
        "car",
        -9.067665493046155
      ],
      [
        "center",
        -9.06853817651961
      ],
      [
        "Game",
        -9.068606419572774
      ],
      [
        "brough",
        -9.069220360396573
      ],
      [
        "river",
        -9.069937976105361
      ],
      [
        "size",
        -9.070233037387936
      ],
      [
        "communit",
        -9.070666900522102
      ],
      [
        "ium",
        -9.072186374351892
      ],
      [
        "village",
        -9.075884683649605
      ],
      [
        "protein",
        -9.07933926148178
      ],
      [
        "battle",
        -9.081778148851226
      ],
      [
        "Federer",
        -9.082504368492085
      ],
      [
        "current",
        -9.08579563543806
      ],
      [
        "adde",
        -9.087015774098756
      ],
      [
        "source",
        -9.087336175707485
      ],
      [
        "find",
        -9.089350247611012
      ],
      [
        "begin",
        -9.091017355726606
      ],
      [
        "31",
        -9.091511743805695
      ],
      [
        "playing",
        -9.091647789612047
      ],
      [
        "George",
        -9.092964936403622
      ],
      [
        "International",
        -9.093047735561852
      ],
      [
        "manager",
        -9.096023608138474
      ],
      [
        "Christian",
        -9.097358150706999
      ],
      [
        "cast",
        -9.098262949534089
      ],
      [
        "Sept",
        -9.098397986707731
      ],
      [
        "language",
        -9.09878198187344
      ],
      [
        "regular",
        -9.102057479819846
      ],
      [
        "lack",
        -9.102216482896761
      ],
      [
        "voice",
        -9.10828127358027
      ],
      [
        "Ma",
        -9.10931912751753
      ],
      [
        "House",
        -9.109416117021993
      ],
      [
        "opening",
        -9.110252225607914
      ],
      [
        "ircraft",
        -9.110493682327952
      ],
      [
        "East",
        -9.113636996987491
      ],
      [
        "Port",
        -9.114048116364959
      ],
      [
        "rate",
        -9.114682460444884
      ],
      [
        "court",
        -9.115003120570563
      ],
      [
        "Street",
        -9.118698910262523
      ],
      [
        "Hero",
        -9.120238045384813
      ],
      [
        "location",
        -9.120858450283578
      ],
      [
        "central",
        -9.124718799455449
      ],
      [
        "Championship",
        -9.125476417843435
      ],
      [
        "artist",
        -9.126613863599413
      ],
      [
        "theme",
        -9.127099755229676
      ],
      [
        "crew",
        -9.127444300732567
      ],
      [
        "Follow",
        -9.128817566794858
      ],
      [
        "advance",
        -9.129503285249632
      ],
      [
        "arrive",
        -9.130540484294908
      ],
      [
        "Jordan",
        -9.132173680800392
      ],
      [
        "break",
        -9.13352571431746
      ],
      [
        "X",
        -9.133857537189503
      ],
      [
        "commercial",
        -9.133936408610687
      ],
      [
        "regard",
        -9.13548497434305
      ],
      [
        "evidence",
        -9.135637527947537
      ],
      [
        "clear",
        -9.137304800818255
      ],
      [
        "offer",
        -9.140828830682292
      ],
      [
        "From",
        -9.148852003931768
      ],
      [
        "upon",
        -9.149536972767086
      ],
      [
        "average",
        -9.151673025971014
      ],
      [
        "ington",
        -9.153269518229633
      ],
      [
        "fail",
        -9.153806227366097
      ],
      [
        "possible",
        -9.155868444200527
      ],
      [
        "poor",
        -9.156058190795136
      ],
      [
        "reveal",
        -9.15625393348349
      ],
      [
        "subsequent",
        -9.156262842499892
      ],
      [
        "Paul",
        -9.156544277843441
      ],
      [
        "section",
        -9.156623101983943
      ],
      [
        "500",
        -9.15771365815196
      ],
      [
        "Rock",
        -9.15961308529284
      ],
      [
        "recording",
        -9.159781891906775
      ],
      [
        "elve",
        -9.160427413515066
      ],
      [
        "works",
        -9.16117674704498
      ],
      [
        "Nov",
        -9.162028387603312
      ],
      [
        "ance",
        -9.164250040471268
      ],
      [
        "troops",
        -9.164893096642038
      ],
      [
        "grow",
        -9.166059970045541
      ],
      [
        "draw",
        -9.166099475238948
      ],
      [
        "pre",
        -9.166481917731506
      ],
      [
        "Day",
        -9.16754930587966
      ],
      [
        "league",
        -9.170282025534837
      ],
      [
        "performe",
        -9.170631464851322
      ],
      [
        "northern",
        -9.171568452880173
      ],
      [
        "Earl",
        -9.173569343966381
      ],
      [
        "introduce",
        -9.176368396998173
      ],
      [
        "mean",
        -9.177217096724716
      ],
      [
        "outside",
        -9.180282011513107
      ],
      [
        "space",
        -9.181034913901236
      ],
      [
        "Michael",
        -9.182903775070162
      ],
      [
        "abilit",
        -9.183420384109564
      ],
      [
        "competition",
        -9.184458951627214
      ],
      [
        "law",
        -9.18450644540296
      ],
      [
        "aying",
        -9.184946377128824
      ],
      [
        "consist",
        -9.185154764246281
      ],
      [
        "sold",
        -9.186944399474886
      ],
      [
        "Tech",
        -9.187829168143068
      ],
      [
        "international",
        -9.18813550939754
      ],
      [
        "effort",
        -9.18817700366379
      ],
      [
        "Atlanti",
        -9.18822176361937
      ],
      [
        "Part",
        -9.189034913078103
      ],
      [
        "gain",
        -9.189477069023123
      ],
      [
        "western",
        -9.189818016789951
      ],
      [
        "Nav",
        -9.190223975548907
      ],
      [
        "extend",
        -9.190272025625486
      ],
      [
        "contract",
        -9.193592888970755
      ],
      [
        "Missouri",
        -9.195241596749053
      ],
      [
        "Hurricane",
        -9.195272478292024
      ],
      [
        "length",
        -9.197520888832702
      ],
      [
        "flood",
        -9.198269502606927
      ],
      [
        "account",
        -9.19881611752923
      ],
      [
        "Indian",
        -9.202690448953177
      ],
      [
        "Africa",
        -9.203059362293061
      ],
      [
        "Red",
        -9.203794359392054
      ],
      [
        "Most",
        -9.204649848125392
      ],
      [
        "reason",
        -9.206279526205421
      ],
      [
        "separate",
        -9.206289550305307
      ],
      [
        "lower",
        -9.208625172569075
      ],
      [
        "magazine",
        -9.209813684533426
      ],
      [
        "whom",
        -9.213081739257795
      ],
      [
        "quick",
        -9.213496322191292
      ],
      [
        "leave",
        -9.213592528831434
      ],
      [
        "material",
        -9.213979907585166
      ],
      [
        "producer",
        -9.214291906892218
      ],
      [
        "ought",
        -9.214843871779562
      ],
      [
        "cut",
        -9.214886010891243
      ],
      [
        "discover",
        -9.216154849814039
      ],
      [
        "condition",
        -9.21707907255939
      ],
      [
        "yards",
        -9.218533757754876
      ],
      [
        "hold",
        -9.218610002322205
      ],
      [
        "60",
        -9.221100326974533
      ],
      [
        "tree",
        -9.221174028596351
      ],
      [
        "conduct",
        -9.222896796005337
      ],
      [
        "working",
        -9.223150358181162
      ],
      [
        "decision",
        -9.224601574609318
      ],
      [
        "San",
        -9.228217059422935
      ],
      [
        "First",
        -9.22837138355837
      ],
      [
        "authorit",
        -9.22958077648343
      ],
      [
        "Best",
        -9.230897434635107
      ],
      [
        "manage",
        -9.23112744659624
      ],
      [
        "travel",
        -9.231722454028745
      ],
      [
        "1970",
        -9.233653112934046
      ],
      [
        "Le",
        -9.233851175746715
      ],
      [
        "mph",
        -9.235580991021397
      ],
      [
        "Z",
        -9.236790264635385
      ],
      [
        "met",
        -9.238682363903582
      ],
      [
        "horse",
        -9.238928891006093
      ],
      [
        "vocal",
        -9.239475114319053
      ],
      [
        "ville",
        -9.24023118958615
      ],
      [
        "38",
        -9.240445481694792
      ],
      [
        "Mont",
        -9.240470720989137
      ],
      [
        "above",
        -9.241345008649846
      ],
      [
        "£",
        -9.243398858520052
      ],
      [
        "positive",
        -9.243441118167638
      ],
      [
        "office",
        -9.244130060312838
      ],
      [
        "anti",
        -9.245191477238093
      ],
      [
        "charge",
        -9.246222546073167
      ],
      [
        "learn",
        -9.246269603629107
      ],
      [
        "studio",
        -9.247262433283716
      ],
      [
        "passe",
        -9.249915694957856
      ],
      [
        "Canada",
        -9.25106831385527
      ],
      [
        "usual",
        -9.251471318140506
      ],
      [
        "construct",
        -9.252565854856096
      ],
      [
        "piece",
        -9.253024300322847
      ],
      [
        "maintain",
        -9.254863292963194
      ],
      [
        "business",
        -9.255109587703213
      ],
      [
        "letter",
        -9.255494820900774
      ],
      [
        "note",
        -9.256193888456302
      ],
      [
        "Henry",
        -9.258721586279918
      ],
      [
        "mention",
        -9.25926070080448
      ],
      [
        "finish",
        -9.261177064836826
      ],
      [
        "election",
        -9.26172564918063
      ],
      [
        "amount",
        -9.262694181113211
      ],
      [
        "machine",
        -9.262986913391604
      ],
      [
        "mak",
        -9.263163610178811
      ],
      [
        "President",
        -9.263227589744634
      ],
      [
        "India",
        -9.263874587069914
      ],
      [
        "metre",
        -9.265272160558398
      ],
      [
        "°",
        -9.26643247810593
      ],
      [
        "winds",
        -9.267722616431309
      ],
      [
        "referr",
        -9.267782589880285
      ],
      [
        "thos",
        -9.26790539745025
      ],
      [
        "Sun",
        -9.268413534349996
      ],
      [
        "nine",
        -9.268786317169948
      ],
      [
        "kille",
        -9.269881829049481
      ],
      [
        "broke",
        -9.270796601930368
      ],
      [
        "sign",
        -9.271957340330975
      ],
      [
        "recent",
        -9.272539256855405
      ],
      [
        "kill",
        -9.273229227699524
      ],
      [
        "Oldham",
        -9.274287466514027
      ],
      [
        "1990",
        -9.277071712215267
      ],
      [
        "soon",
        -9.277626595927213
      ],
      [
        "availab",
        -9.277753661479487
      ],
      [
        "Peter",
        -9.280130997620741
      ],
      [
        "2000",
        -9.280894683915882
      ],
      [
        "agree",
        -9.281259065679594
      ],
      [
        "Olivier",
        -9.282173681466944
      ],
      [
        "write",
        -9.284029142964304
      ],
      [
        "leas",
        -9.284466937825915
      ],
      [
        "interview",
        -9.28472692878438
      ],
      [
        "probabl",
        -9.28611043255618
      ],
      [
        "type",
        -9.286281056534552
      ],
      [
        "35",
        -9.286973376673389
      ],
      [
        "stay",
        -9.28821902085129
      ],
      [
        "foot",
        -9.288915606751635
      ],
      [
        "ism",
        -9.289015192967408
      ],
      [
        "concert",
        -9.289904349705587
      ],
      [
        "response",
        -9.290048905274803
      ],
      [
        "ending",
        -9.290476630188124
      ],
      [
        "taking",
        -9.29061320364097
      ],
      [
        "deal",
        -9.290753497216933
      ],
      [
        "red",
        -9.291958439508875
      ],
      [
        "transport",
        -9.29284662904546
      ],
      [
        "Regiment",
        -9.293998233443821
      ],
      [
        "45",
        -9.295106900071932
      ],
      [
        "word",
        -9.296001451369602
      ],
      [
        "spite",
        -9.297299827879055
      ],
      [
        "Mexico",
        -9.297993442763172
      ],
      [
        "Later",
        -9.299024177403819
      ],
      [
        "Star",
        -9.299076231639976
      ],
      [
        "NY",
        -9.300816365838337
      ],
      [
        "sometime",
        -9.30097776571223
      ],
      [
        "Irish",
        -9.302106004528582
      ],
      [
        "surface",
        -9.302711367933288
      ],
      [
        "muc",
        -9.303247048143533
      ],
      [
        "board",
        -9.30518885286181
      ],
      [
        "School",
        -9.305974530937185
      ],
      [
        "brother",
        -9.306113279079387
      ],
      [
        "hard",
        -9.307226779692499
      ],
      [
        "shape",
        -9.307313887207192
      ],
      [
        "00",
        -9.307326828331998
      ],
      [
        "social",
        -9.307550830201041
      ],
      [
        "Vietnam",
        -9.309277527121775
      ],
      [
        "Mark",
        -9.310072017116706
      ],
      [
        "And",
        -9.310367004181868
      ],
      [
        "Jack",
        -9.311199072700841
      ],
      [
        "aking",
        -9.311871394114549
      ],
      [
        "Bay",
        -9.313060105654888
      ],
      [
        "Sea",
        -9.313715043207713
      ],
      [
        "loss",
        -9.313843369878416
      ],
      [
        "Canadian",
        -9.314210882240442
      ],
      [
        "Thomas",
        -9.314508235870031
      ],
      [
        "forward",
        -9.31455934302216
      ],
      [
        "Brown",
        -9.31598619530796
      ],
      [
        "football",
        -9.31702725533822
      ],
      [
        "friend",
        -9.317087564011903
      ],
      [
        "Times",
        -9.317949579722614
      ],
      [
        "prevent",
        -9.318246894986077
      ],
      [
        "woman",
        -9.318719158135806
      ],
      [
        "flight",
        -9.318824331519723
      ],
      [
        "must",
        -9.3190982314573
      ],
      [
        "share",
        -9.319457783923497
      ],
      [
        "Great",
        -9.3198224672901
      ],
      [
        "Mount",
        -9.32224354624134
      ],
      [
        "religious",
        -9.322340702635184
      ],
      [
        "finishe",
        -9.324553227125092
      ],
      [
        "studie",
        -9.324677097500686
      ],
      [
        "explain",
        -9.325980868880416
      ],
      [
        "network",
        -9.326464787095365
      ],
      [
        "Re",
        -9.32671969235814
      ],
      [
        "pressure",
        -9.32673550031991
      ],
      [
        "typical",
        -9.327088278195241
      ],
      [
        "subject",
        -9.328010661076707
      ],
      [
        "capital",
        -9.329581716811994
      ],
      [
        "division",
        -9.330653968125716
      ],
      [
        "specific",
        -9.331551745415148
      ],
      [
        "standard",
        -9.332078051750017
      ],
      [
        "1960",
        -9.332564821667908
      ],
      [
        "actor",
        -9.334415646823508
      ],
      [
        "Guitar",
        -9.334732277590042
      ],
      [
        "increasing",
        -9.3348441932601
      ],
      [
        "Air",
        -9.335369452015836
      ],
      [
        "approximate",
        -9.336436816420965
      ],
      [
        "cost",
        -9.341271707306133
      ],
      [
        "nough",
        -9.344521856211095
      ],
      [
        "Hall",
        -9.345480850484362
      ],
      [
        "seem",
        -9.34644279132549
      ],
      [
        "professional",
        -9.346713703768929
      ],
      [
        "boat",
        -9.346851904284742
      ],
      [
        "fact",
        -9.346926975173854
      ],
      [
        "natural",
        -9.347242886603322
      ],
      [
        "relative",
        -9.347688312227625
      ],
      [
        "test",
        -9.347929362878542
      ],
      [
        "gold",
        -9.349053813814308
      ],
      [
        "cap",
        -9.349109897159217
      ],
      [
        "certain",
        -9.350192378850693
      ],
      [
        "?",
        -9.351503873726802
      ],
      [
        "leg",
        -9.351690477464068
      ],
      [
        "trade",
        -9.351818454062435
      ],
      [
        "winning",
        -9.352255142715496
      ],
      [
        "establish",
        -9.352531047048013
      ],
      [
        "mov",
        -9.35331400774029
      ],
      [
        "territor",
        -9.355675397972927
      ],
      [
        "daughter",
        -9.355760811072491
      ],
      [
        "might",
        -9.356573524389491
      ],
      [
        "latter",
        -9.356841411534985
      ],
      [
        "police",
        -9.357115430064761
      ],
      [
        "past",
        -9.35845800606942
      ],
      [
        "That",
        -9.358993235787985
      ],
      [
        "189",
        -9.359447452086764
      ],
      [
        "Pacific",
        -9.359996481035424
      ],
      [
        "immediate",
        -9.36000207836425
      ],
      [
        "Light",
        -9.36034034849265
      ],
      [
        "Union",
        -9.360556513383909
      ],
      [
        "additional",
        -9.360944223315133
      ],
      [
        "course",
        -9.364272358296816
      ],
      [
        "Wheeler",
        -9.364309795382644
      ],
      [
        "spread",
        -9.364411680567692
      ],
      [
        "detail",
        -9.364525251210171
      ],
      [
        "fleet",
        -9.364700327143332
      ],
      [
        "movement",
        -9.365246247636438
      ],
      [
        "ers",
        -9.365848471920161
      ],
      [
        "display",
        -9.365981300031791
      ],
      [
        "goals",
        -9.366580358707118
      ],
      [
        "beginning",
        -9.36868805978941
      ],
      [
        "food",
        -9.36879094435864
      ],
      [
        "according",
        -9.369584920552867
      ],
      [
        "depression",
        -9.371438822724585
      ],
      [
        "fund",
        -9.371699627065205
      ],
      [
        "forest",
        -9.37261249147548
      ],
      [
        "carrie",
        -9.373130649244008
      ],
      [
        "resident",
        -9.373382589088546
      ],
      [
        "Histor",
        -9.374084987925642
      ],
      [
        "raise",
        -9.376976282672107
      ],
      [
        "market",
        -9.377457851845431
      ],
      [
        "annual",
        -9.37758896884569
      ],
      [
        "Force",
        -9.37803504066759
      ],
      [
        "approach",
        -9.379011249890446
      ],
      [
        "affect",
        -9.381370289333018
      ],
      [
        "Film",
        -9.38161630970272
      ],
      [
        "larges",
        -9.38272714126115
      ],
      [
        "battalion",
        -9.385915889918438
      ],
      [
        "culture",
        -9.386088503836753
      ],
      [
        "chose",
        -9.389397225943249
      ],
      [
        "Catholic",
        -9.390301798234596
      ],
      [
        "soldier",
        -9.390463812397503
      ],
      [
        "active",
        -9.391038886388849
      ],
      [
        "hit",
        -9.394454696146138
      ],
      [
        "80",
        -9.395393295640552
      ],
      [
        "appointe",
        -9.39549003671533
      ],
      [
        "stein",
        -9.395749811474705
      ],
      [
        "related",
        -9.397018723774725
      ],
      [
        "Creek",
        -9.399146723307382
      ],
      [
        "Hill",
        -9.399526617516335
      ],
      [
        "Sinc",
        -9.401437991828866
      ],
      [
        "president",
        -9.403057832998538
      ],
      [
        "try",
        -9.40380162055914
      ],
      [
        "running",
        -9.403954991153334
      ],
      [
        "research",
        -9.407779459388454
      ],
      [
        "summer",
        -9.40833329582685
      ],
      [
        "industr",
        -9.408830350897
      ],
      [
        "dam",
        -9.41117315437058
      ],
      [
        "mission",
        -9.412000781126624
      ],
      [
        "animal",
        -9.41253575166285
      ],
      [
        "better",
        -9.412798618643535
      ],
      [
        "Charles",
        -9.412925074603166
      ],
      [
        "centre",
        -9.413183250502598
      ],
      [
        "poet",
        -9.413682798666883
      ],
      [
        "Jin",
        -9.413713876114064
      ],
      [
        "Old",
        -9.413985891306115
      ],
      [
        "reference",
        -9.414538089860276
      ],
      [
        "operate",
        -9.414581920104983
      ],
      [
        "media",
        -9.415927888775208
      ],
      [
        "practice",
        -9.417727700490815
      ],
      [
        "De",
        -9.418852484119295
      ],
      [
        "futur",
        -9.419923476096
      ],
      [
        "quarter",
        -9.420638156534682
      ],
      [
        "concern",
        -9.421554351753045
      ],
      [
        "achel",
        -9.422671541390017
      ],
      [
        "protect",
        -9.422878409101347
      ],
      [
        "connect",
        -9.423444303872209
      ],
      [
        "staff",
        -9.423771210436497
      ],
      [
        "propose",
        -9.42404123343498
      ],
      [
        "our",
        -9.42428882205913
      ],
      [
        "tower",
        -9.424779092799522
      ],
      [
        "cross",
        -9.425138514633904
      ],
      [
        "reduce",
        -9.42569762430286
      ],
      [
        "Route",
        -9.426217712293187
      ],
      [
        "75",
        -9.427083448464124
      ],
      [
        "188",
        -9.428151328019613
      ],
      [
        "Du",
        -9.429929846429685
      ],
      [
        "meeting",
        -9.430910661161445
      ],
      [
        "bring",
        -9.431546773034624
      ],
      [
        "Brita",
        -9.43298142120797
      ],
      [
        "grant",
        -9.4355920110081
      ],
      [
        "pent",
        -9.43703487808158
      ],
      [
        "personal",
        -9.437066943280168
      ],
      [
        "larger",
        -9.439519971391528
      ],
      [
        "critical",
        -9.441954044827495
      ],
      [
        "thus",
        -9.443033355778638
      ],
      [
        "color",
        -9.444435285516349
      ],
      [
        "ian",
        -9.444652143087733
      ],
      [
        "Law",
        -9.446612325001524
      ],
      [
        "Chin",
        -9.449071557144016
      ],
      [
        "fifth",
        -9.449648617185666
      ],
      [
        "pole",
        -9.45181263337981
      ],
      [
        "injur",
        -9.452626666952963
      ],
      [
        "double",
        -9.454313835333952
      ],
      [
        "lyric",
        -9.455203496001992
      ],
      [
        "associate",
        -9.455577116458183
      ],
      [
        "1980",
        -9.456034170012089
      ],
      [
        "radio",
        -9.456561769260416
      ],
      [
        "sub",
        -9.456689515776592
      ],
      [
        "recorde",
        -9.456837213660474
      ],
      [
        "students",
        -9.456894176547632
      ],
      [
        "treat",
        -9.459259346712393
      ],
      [
        "Zealand",
        -9.461012814201013
      ],
      [
        "mass",
        -9.462018714067177
      ],
      [
        "But",
        -9.462296423388075
      ],
      [
        "lines",
        -9.462639013667637
      ],
      [
        "room",
        -9.462757529176333
      ],
      [
        "respective",
        -9.463332523730719
      ],
      [
        "musical",
        -9.463456446594785
      ],
      [
        "185",
        -9.465373216215768
      ],
      [
        "assign",
        -9.466073405841033
      ],
      [
        "186",
        -9.46718234688894
      ],
      [
        "sound",
        -9.467542397525976
      ],
      [
        "Western",
        -9.46811172860483
      ],
      [
        "coach",
        -9.468991675872168
      ],
      [
        "model",
        -9.469916572488017
      ],
      [
        "highe",
        -9.471477692699688
      ],
      [
        "know",
        -9.472564346473021
      ],
      [
        "Olympic",
        -9.47273658670198
      ],
      [
        "scor",
        -9.473611206129494
      ],
      [
        "focus",
        -9.474392731015406
      ],
      [
        "commander",
        -9.474668899267186
      ],
      [
        "depict",
        -9.47734914446161
      ],
      [
        "audience",
        -9.477513171061954
      ],
      [
        "private",
        -9.477572010817191
      ],
      [
        "Battle",
        -9.477860961971494
      ],
      [
        "Year",
        -9.4779033418563
      ],
      [
        "returne",
        -9.481715091995135
      ],
      [
        "Play",
        -9.482099189703431
      ],
      [
        "Scientolog",
        -9.482278463636682
      ],
      [
        "Haifa",
        -9.482322995004495
      ],
      [
        "deliver",
        -9.487213510590749
      ],
      [
        "meet",
        -9.487222147473403
      ],
      [
        "ma",
        -9.487812870406497
      ],
      [
        "Lake",
        -9.487820125758939
      ],
      [
        "ran",
        -9.487842299404027
      ],
      [
        "author",
        -9.488969194677626
      ],
      [
        "nature",
        -9.491202817866236
      ],
      [
        "Parliament",
        -9.492005806660302
      ],
      [
        "Association",
        -9.492006555528292
      ],
      [
        "actual",
        -9.492073094378277
      ],
      [
        "Saint",
        -9.492410538586585
      ],
      [
        "90",
        -9.49242298329025
      ],
      [
        "sequence",
        -9.49736260800986
      ],
      [
        "primar",
        -9.498240369261527
      ],
      [
        "assist",
        -9.498421774466113
      ],
      [
        "key",
        -9.499786410854117
      ],
      [
        "education",
        -9.501790699427078
      ],
      [
        "marrie",
        -9.502116864457445
      ],
      [
        "broadcast",
        -9.504525236665895
      ],
      [
        "Richard",
        -9.504917140540435
      ],
      [
        "hav",
        -9.50601109422677
      ],
      [
        "collection",
        -9.506245114189145
      ],
      [
        "Villa",
        -9.507620675871127
      ],
      [
        "Despi",
        -9.50780690249035
      ],
      [
        "think",
        -9.50791965502281
      ],
      [
        "illboard",
        -9.508372377076746
      ],
      [
        "throw",
        -9.509107862075453
      ],
      [
        "host",
        -9.51012005529941
      ],
      [
        "distance",
        -9.51105451422974
      ],
      [
        "money",
        -9.512203424006117
      ],
      [
        "bar",
        -9.513308410754789
      ],
      [
        "Un",
        -9.51542064318157
      ],
      [
        "Scott",
        -9.516032357808246
      ],
      [
        "Wood",
        -9.516260712177857
      ],
      [
        "Council",
        -9.51663306050324
      ],
      [
        "cyclone",
        -9.517103742851981
      ],
      [
        "Latin",
        -9.517608303183952
      ],
      [
        "dead",
        -9.51879608015907
      ],
      [
        "Car",
        -9.519394237510625
      ],
      [
        "serve",
        -9.520130519184818
      ],
      [
        "alway",
        -9.520206855427737
      ],
      [
        "parent",
        -9.52095256336704
      ],
      [
        "achieve",
        -9.521407612283873
      ],
      [
        "Corp",
        -9.52167147161375
      ],
      [
        "tell",
        -9.522860491376452
      ],
      [
        "upper",
        -9.523871590378427
      ],
      [
        "remove",
        -9.52510033865889
      ],
      [
        "Me",
        -9.526524346607879
      ],
      [
        "Jewish",
        -9.526834101135911
      ],
      [
        "shore",
        -9.52717761006031
      ],
      [
        "Station",
        -9.527197359134867
      ],
      [
        "traditional",
        -9.527342937598789
      ],
      [
        "Super",
        -9.527646250649813
      ],
      [
        "1950",
        -9.529382563659384
      ],
      [
        "box",
        -9.53004521667185
      ],
      [
        "Galveston",
        -9.531622557495975
      ],
      [
        "ham",
        -9.531784656584747
      ],
      [
        "tic",
        -9.53237880968862
      ],
      [
        "select",
        -9.533739197376011
      ],
      [
        "Earth",
        -9.534318901177265
      ],
      [
        "singer",
        -9.5351396070549
      ],
      [
        "slow",
        -9.535234804985912
      ],
      [
        "entral",
        -9.535950272561811
      ],
      [
        "breed",
        -9.535991118182064
      ],
      [
        "link",
        -9.536254475468425
      ],
      [
        "occur",
        -9.539941846391486
      ],
      [
        "deep",
        -9.540960247464266
      ],
      [
        "Mary",
        -9.541175961593705
      ],
      [
        "meaning",
        -9.541178718866375
      ],
      [
        "ial",
        -9.541296443526335
      ],
      [
        "effective",
        -9.54149755650258
      ],
      [
        "organization",
        -9.54192269639971
      ],
      [
        "decade",
        -9.541972283092417
      ],
      [
        "39",
        -9.54269053383334
      ],
      [
        "California",
        -9.542900006321743
      ],
      [
        "engineer",
        -9.5430078346347
      ],
      [
        "Scot",
        -9.543731574159663
      ],
      [
        "Final",
        -9.54428769429769
      ],
      [
        "prove",
        -9.544442042367548
      ],
      [
        "Over",
        -9.545315954696257
      ],
      [
        "keep",
        -9.545349151596415
      ],
      [
        "400",
        -9.547061053022745
      ],
      [
        "70",
        -9.547378248607536
      ],
      [
        "craft",
        -9.54755082899264
      ],
      [
        "pair",
        -9.547966643491508
      ],
      [
        "BC",
        -9.548133009999153
      ],
      [
        "sister",
        -9.551023799581422
      ],
      [
        "historical",
        -9.552329902495273
      ],
      [
        "truck",
        -9.552395421496502
      ],
      [
        "mixe",
        -9.552606271723615
      ],
      [
        "decline",
        -9.55272766837837
      ],
      [
        "situation",
        -9.55288712686825
      ],
      [
        "beg",
        -9.555371493785506
      ],
      [
        "ory",
        -9.555979129463475
      ],
      [
        "stream",
        -9.556439015225013
      ],
      [
        "tradition",
        -9.556581186468684
      ],
      [
        "ch",
        -9.556770975324483
      ],
      [
        "guitar",
        -9.557304729743489
      ],
      [
        "Under",
        -9.55731648029861
      ],
      [
        "edge",
        -9.557356330074672
      ],
      [
        "flow",
        -9.557736156602441
      ],
      [
        "brief",
        -9.55780544947805
      ],
      [
        "leader",
        -9.557931969706823
      ],
      [
        "hi",
        -9.558283051361386
      ],
      [
        "Angel",
        -9.560126473828708
      ],
      [
        "tail",
        -9.561196471084493
      ],
      [
        "universit",
        -9.562563942494627
      ],
      [
        "prior",
        -9.562993831598128
      ],
      [
        "ool",
        -9.563844616712405
      ],
      [
        "save",
        -9.565875059139206
      ],
      [
        "colon",
        -9.566244140503098
      ],
      [
        "statu",
        -9.566797352087395
      ],
      [
        "venue",
        -9.567176309537432
      ],
      [
        "ester",
        -9.567244919536456
      ],
      [
        "marriage",
        -9.56783590957919
      ],
      [
        "traffic",
        -9.5684667850114
      ],
      [
        "measure",
        -9.570791534289093
      ],
      [
        "observe",
        -9.571793875852421
      ],
      [
        "My",
        -9.571962640364909
      ],
      [
        "marked",
        -9.572141089959736
      ],
      [
        "fans",
        -9.572405823337895
      ],
      [
        "Alice",
        -9.573472166493232
      ],
      [
        "sexual",
        -9.574113161680899
      ],
      [
        "plant",
        -9.574446816724137
      ],
      [
        "Chicago",
        -9.574645606715102
      ],
      [
        "Up",
        -9.574739449883594
      ],
      [
        "36",
        -9.574871079013889
      ],
      [
        "bodies",
        -9.574999611173645
      ],
      [
        "187",
        -9.576296295380308
      ],
      [
        "La",
        -9.577077374598092
      ],
      [
        "Nix",
        -9.57848114030688
      ],
      [
        "job",
        -9.578580481665071
      ],
      [
        "compare",
        -9.580308442326398
      ],
      [
        "47",
        -9.580608751675408
      ],
      [
        "Nation",
        -9.580693707469235
      ],
      [
        "nuclea",
        -9.581119957702242
      ],
      [
        "1940",
        -9.581289498781116
      ],
      [
        "heavi",
        -9.583294663961299
      ],
      [
        "defence",
        -9.583697153508185
      ],
      [
        "Ri",
        -9.587259275628918
      ],
      [
        "Service",
        -9.589027804446294
      ],
      [
        "newspaper",
        -9.58906435348843
      ],
      [
        "historian",
        -9.589233870241356
      ],
      [
        "indicate",
        -9.591669520913417
      ],
      [
        "com",
        -9.5925303907934
      ],
      [
        "gods",
        -9.593485722756647
      ],
      [
        "determine",
        -9.593525592790566
      ],
      [
        "metal",
        -9.593771167691077
      ],
      [
        "nation",
        -9.595235112394441
      ],
      [
        "painting",
        -9.596768413943582
      ],
      [
        "batter",
        -9.598543596797594
      ],
      [
        "Second",
        -9.59980704815802
      ],
      [
        "Alkan",
        -9.599825300176366
      ],
      [
        "Ross",
        -9.59990270068532
      ],
      [
        "request",
        -9.59996967545017
      ],
      [
        "rating",
        -9.60060155933263
      ],
      [
        "whe",
        -9.601812968023987
      ],
      [
        "El",
        -9.602097132217569
      ],
      [
        "FA",
        -9.602367777246293
      ],
      [
        "African",
        -9.604403872854796
      ],
      [
        "inspire",
        -9.60468878967169
      ],
      [
        "tournament",
        -9.605237081897384
      ],
      [
        "whole",
        -9.605731383307969
      ],
      [
        "border",
        -9.605825448934734
      ],
      [
        "mountain",
        -9.605931765313507
      ],
      [
        "minor",
        -9.606317863431686
      ],
      [
        "Simon",
        -9.606552965876947
      ],
      [
        "variet",
        -9.606733305729353
      ],
      [
        "overall",
        -9.607263349874977
      ],
      [
        "ask",
        -9.607922232968527
      ],
      [
        "1930",
        -9.608575189537724
      ],
      [
        "aught",
        -9.608858873489975
      ],
      [
        "rapid",
        -9.61072096894285
      ],
      [
        "speed",
        -9.610921608286853
      ],
      [
        "argue",
        -9.61224107416282
      ],
      [
        "High",
        -9.61376578450978
      ],
      [
        "+",
        -9.616195908067416
      ],
      [
        "Christmas",
        -9.616206946668253
      ],
      [
        "serious",
        -9.616210263277297
      ],
      [
        "Liverp",
        -9.616648823507532
      ],
      [
        "aylor",
        -9.617253542656329
      ],
      [
        "Record",
        -9.617281711645997
      ],
      [
        "Texa",
        -9.617345883768653
      ],
      [
        "ha",
        -9.617939221835844
      ],
      [
        "lot",
        -9.618108734510251
      ],
      [
        "got",
        -9.61854544536764
      ],
      [
        "protest",
        -9.619598382083016
      ],
      [
        "script",
        -9.620514582500391
      ],
      [
        "drive",
        -9.620586365909968
      ],
      [
        "conclude",
        -9.62092676710667
      ],
      [
        "300",
        -9.621229728986394
      ],
      [
        "featur",
        -9.623376569732978
      ],
      [
        "via",
        -9.624105858827793
      ],
      [
        "Live",
        -9.626426812697442
      ],
      [
        "moment",
        -9.62733366243867
      ],
      [
        "mouth",
        -9.627350837364032
      ],
      [
        "Somers",
        -9.627892889845498
      ],
      [
        "Jane",
        -9.628179036932291
      ],
      [
        "watch",
        -9.628543568891324
      ],
      [
        "mount",
        -9.628637227566472
      ],
      [
        "storie",
        -9.629411796747016
      ],
      [
        "Lady",
        -9.629775838102075
      ],
      [
        "Republic",
        -9.630109841016221
      ],
      [
        "Don",
        -9.630185164639634
      ],
      [
        "states",
        -9.632019768302406
      ],
      [
        "Mosley",
        -9.6328945773447
      ],
      [
        "Italian",
        -9.633079225009574
      ],
      [
        "health",
        -9.633645176376707
      ],
      [
        "usch",
        -9.636700386323778
      ],
      [
        "Fowle",
        -9.638510899265949
      ],
      [
        "kind",
        -9.640602072699515
      ],
      [
        "rare",
        -9.640851465940838
      ],
      [
        "elect",
        -9.64234491599795
      ],
      [
        "ex",
        -9.642451920876432
      ],
      [
        "park",
        -9.642807579785138
      ],
      [
        "conflict",
        -9.64413065786605
      ],
      [
        "Squadron",
        -9.644132012138185
      ],
      [
        "temple",
        -9.644133806656978
      ],
      [
        "Three",
        -9.64439582035279
      ],
      [
        "giving",
        -9.644648825769393
      ],
      [
        "pay",
        -9.645305287878458
      ],
      [
        "native",
        -9.645590024534194
      ],
      [
        "hear",
        -9.645669926336225
      ],
      [
        "Carolina",
        -9.646484409104556
      ],
      [
        "avoid",
        -9.646802045530734
      ],
      [
        "Tropic",
        -9.646837892695132
      ],
      [
        "question",
        -9.646935936891772
      ],
      [
        "promote",
        -9.64797544964818
      ],
      [
        "contemporar",
        -9.649826560775946
      ],
      [
        "cathedral",
        -9.650282240892471
      ],
      [
        "qualit",
        -9.650711686940069
      ],
      [
        "birth",
        -9.654494016473143
      ],
      [
        "girl",
        -9.655380219466611
      ],
      [
        "potential",
        -9.655533924738432
      ],
      [
        "plot",
        -9.655976781124629
      ],
      [
        "normal",
        -9.656564589153842
      ],
      [
        "couple",
        -9.656567974575026
      ],
      [
        "Fort",
        -9.65668494179479
      ],
      [
        "frequent",
        -9.657020661265864
      ],
      [
        "majorit",
        -9.657385692262945
      ],
      [
        "refuse",
        -9.658177234933108
      ],
      [
        "talk",
        -9.658662955125967
      ],
      [
        "credit",
        -9.659206106142836
      ],
      [
        "33",
        -9.659485009771542
      ],
      [
        "Paris",
        -9.660774243655935
      ],
      [
        "press",
        -9.660920154328068
      ],
      [
        "dollar",
        -9.661326192120399
      ],
      [
        "leav",
        -9.663995756652149
      ],
      [
        "presen",
        -9.665177068263912
      ],
      [
        "safe",
        -9.66522298673414
      ],
      [
        "scale",
        -9.666473981987572
      ],
      [
        "Minne",
        -9.66647595616639
      ],
      [
        "husband",
        -9.667058029305917
      ],
      [
        "Infantr",
        -9.667154718470684
      ],
      [
        "Like",
        -9.66717699268994
      ],
      [
        "demand",
        -9.667327722579849
      ],
      [
        "Storm",
        -9.668011456233572
      ],
      [
        "Soviet",
        -9.66810699998457
      ],
      [
        "value",
        -9.668523499885618
      ],
      [
        "compose",
        -9.672725732657346
      ],
      [
        "Virginia",
        -9.672951052700558
      ],
      [
        "Act",
        -9.674561342330053
      ],
      [
        "am",
        -9.674815850507635
      ],
      [
        "ney",
        -9.676768153336425
      ],
      [
        "bill",
        -9.677817021416553
      ],
      [
        "method",
        -9.678159818226204
      ],
      [
        "Serie",
        -9.678322683756722
      ],
      [
        "signe",
        -9.678816396919663
      ],
      [
        "headquarter",
        -9.67903517117629
      ],
      [
        "god",
        -9.679103738949236
      ],
      [
        "expand",
        -9.679762888725874
      ],
      [
        "Los",
        -9.679820606157271
      ],
      [
        "ach",
        -9.680307445355428
      ],
      [
        "panish",
        -9.680377987402286
      ],
      [
        "Bill",
        -9.681791580088873
      ],
      [
        "destroy",
        -9.684185762822368
      ],
      [
        "College",
        -9.685398848907278
      ],
      [
        "pitch",
        -9.687972317445452
      ],
      [
        "starte",
        -9.688735262342387
      ],
      [
        "severe",
        -9.689256399400538
      ],
      [
        "Rosebery",
        -9.690518058892875
      ],
      [
        "purpose",
        -9.69052339665071
      ],
      [
        "weapon",
        -9.690530724981627
      ],
      [
        "Club",
        -9.690580855697132
      ],
      [
        "settlement",
        -9.690728450851058
      ],
      [
        "Anderson",
        -9.690986654435278
      ],
      [
        "48",
        -9.691317739316244
      ],
      [
        "meant",
        -9.692136526147198
      ],
      [
        "screen",
        -9.692736754828866
      ],
      [
        "fell",
        -9.69283574313409
      ],
      [
        "Severa",
        -9.693296348719223
      ],
      [
        "Arab",
        -9.695884633272911
      ],
      [
        "concept",
        -9.696278940673484
      ],
      [
        "piano",
        -9.696536182187907
      ],
      [
        "complex",
        -9.696604821756377
      ],
      [
        "Beyonc",
        -9.697119518112258
      ],
      [
        "Open",
        -9.697235076194254
      ],
      [
        "improve",
        -9.697376569786591
      ],
      [
        "copie",
        -9.698397801582864
      ],
      [
        "propert",
        -9.698670122378664
      ],
      [
        "speak",
        -9.700375306307857
      ],
      [
        "32",
        -9.700747417272243
      ],
      [
        "sentence",
        -9.701567625096256
      ],
      [
        "confirm",
        -9.701709173548377
      ],
      [
        "ultimate",
        -9.702456070965905
      ],
      [
        "morning",
        -9.702473426152165
      ],
      [
        "Major",
        -9.70248805732401
      ],
      [
        "Tour",
        -9.703844583854742
      ],
      [
        "runs",
        -9.703976912387024
      ],
      [
        "collect",
        -9.705298922946376
      ],
      [
        "occurre",
        -9.705856438710082
      ],
      [
        "purchase",
        -9.706329892532747
      ],
      [
        "iami",
        -9.706440806136719
      ],
      [
        "strength",
        -9.70741678406641
      ],
      [
        "Time",
        -9.708021565548856
      ],
      [
        "Ottoman",
        -9.708543273844004
      ],
      [
        "combine",
        -9.710451787746475
      ],
      [
        "boy",
        -9.710868728304273
      ],
      [
        "wave",
        -9.712051660940896
      ],
      [
        "Green",
        -9.713228409360525
      ],
      [
        "Museum",
        -9.714568996476551
      ],
      [
        "enjoy",
        -9.71486263232095
      ],
      [
        "Jackson",
        -9.715148238446927
      ],
      [
        "numero",
        -9.715242480824427
      ],
      [
        "Prince",
        -9.716743791810828
      ],
      [
        "thick",
        -9.717010084280137
      ],
      [
        "fruit",
        -9.718964251236825
      ],
      [
        "worth",
        -9.720387222513107
      ],
      [
        "brigade",
        -9.720640241022577
      ],
      [
        "target",
        -9.720647728878266
      ],
      [
        "portion",
        -9.721011075583359
      ],
      [
        "enem",
        -9.721331799904068
      ],
      [
        "Their",
        -9.72239639453812
      ],
      [
        "adult",
        -9.722600985833989
      ],
      [
        "declare",
        -9.72265043789691
      ],
      [
        "Pennsylvania",
        -9.72360505931848
      ],
      [
        "hundred",
        -9.725254983208586
      ],
      [
        "names",
        -9.725663195587689
      ],
      [
        "42",
        -9.726216752482648
      ],
      [
        "intende",
        -9.726674190872302
      ],
      [
        "companie",
        -9.726745907742082
      ],
      [
        "Through",
        -9.726813567967266
      ],
      [
        "sex",
        -9.726844366621624
      ],
      [
        "impact",
        -9.727222395722679
      ],
      [
        "Queen",
        -9.727504233405263
      ],
      [
        "genu",
        -9.727871239392805
      ],
      [
        "Polis",
        -9.727986639149542
      ],
      [
        "schedule",
        -9.728383468134343
      ],
      [
        "acre",
        -9.728970621007583
      ],
      [
        "camp",
        -9.729170402974326
      ],
      [
        "Chris",
        -9.729635022912056
      ],
      [
        "abandon",
        -9.729985164366347
      ],
      [
        "44",
        -9.730426842790767
      ],
      [
        "access",
        -9.731750082989599
      ],
      [
        "sense",
        -9.732353850107152
      ],
      [
        "paper",
        -9.732533260002796
      ],
      [
        "disease",
        -9.73295674672812
      ],
      [
        "reject",
        -9.733011317659841
      ],
      [
        "aspect",
        -9.733726383585642
      ],
      [
        "makes",
        -9.7339766432463
      ],
      [
        "rise",
        -9.73440552868183
      ],
      [
        "Cross",
        -9.734576946049732
      ],
      [
        "direction",
        -9.735474097171194
      ],
      [
        "bridge",
        -9.736316407537542
      ],
      [
        "recover",
        -9.73691298333215
      ],
      [
        "artillery",
        -9.737148829866626
      ],
      [
        "rough",
        -9.738929754604111
      ],
      [
        "Frank",
        -9.739119549907032
      ],
      [
        "powerful",
        -9.739407304080373
      ],
      [
        "Sir",
        -9.739710301167428
      ],
      [
        "án",
        -9.74026998665958
      ],
      [
        "hope",
        -9.740673450715676
      ],
      [
        "orthern",
        -9.742326312686775
      ],
      [
        "text",
        -9.74278694060794
      ],
      [
        "search",
        -9.743611396577199
      ],
      [
        "organize",
        -9.743631118850555
      ],
      [
        "ranke",
        -9.7438844100773
      ],
      [
        "responsibl",
        -9.744599831134645
      ],
      [
        "Blue",
        -9.744822529033739
      ],
      [
        "percent",
        -9.7451695199847
      ],
      [
        "Chart",
        -9.746042757259332
      ],
      [
        "edition",
        -9.746294218595338
      ],
      [
        "litera",
        -9.749148162744383
      ],
      [
        "inner",
        -9.74917972766456
      ],
      [
        "raid",
        -9.749585946315442
      ],
      [
        "blue",
        -9.751062843339227
      ],
      [
        "advantage",
        -9.751602187975932
      ],
      [
        "escape",
        -9.751663495666474
      ],
      [
        "temperature",
        -9.75170729516459
      ],
      [
        "Both",
        -9.752724245727219
      ],
      [
        "worker",
        -9.753099303620292
      ],
      [
        "trial",
        -9.75356720874333
      ],
      [
        "ill",
        -9.753670799688036
      ],
      [
        "tons",
        -9.754033023967985
      ],
      [
        "stat",
        -9.755016181789125
      ],
      [
        "factor",
        -9.755315608972705
      ],
      [
        "movie",
        -9.75646101117075
      ],
      [
        "greates",
        -9.757342820829644
      ],
      [
        "Command",
        -9.757362323226474
      ],
      [
        "Department",
        -9.75802817663279
      ],
      [
        "degree",
        -9.758046705920043
      ],
      [
        "fish",
        -9.758699225496684
      ],
      [
        "Hot",
        -9.758988504952043
      ],
      [
        "wound",
        -9.759271860738833
      ],
      [
        "secure",
        -9.759590421212842
      ],
      [
        "physical",
        -9.76005932193144
      ],
      [
        "Court",
        -9.760633704599005
      ],
      [
        "reception",
        -9.76083189975576
      ],
      [
        "feel",
        -9.760960085687348
      ],
      [
        "identifie",
        -9.760987087417329
      ],
      [
        "standing",
        -9.761246462382532
      ],
      [
        "true",
        -9.761258111370296
      ],
      [
        "Brad",
        -9.761314052663744
      ],
      [
        "ful",
        -9.761423020877672
      ],
      [
        "party",
        -9.762854444397561
      ],
      [
        "touchdown",
        -9.764557294102712
      ],
      [
        "middle",
        -9.76467000305592
      ],
      [
        "xenon",
        -9.764752564631925
      ],
      [
        "engage",
        -9.765464873295985
      ],
      [
        "Tess",
        -9.766975781261694
      ],
      [
        "vote",
        -9.76729460163687
      ],
      [
        "document",
        -9.767302896818158
      ],
      [
        "Center",
        -9.76779963598006
      ],
      [
        "defend",
        -9.768372195807274
      ],
      [
        "Football",
        -9.768552605916572
      ],
      [
        "launche",
        -9.768679425909419
      ],
      [
        "beat",
        -9.768952636956662
      ],
      [
        "intend",
        -9.769831277425148
      ],
      [
        "Braathen",
        -9.770806266721358
      ],
      [
        "promotion",
        -9.771024340675565
      ],
      [
        "Louis",
        -9.771180559419076
      ],
      [
        "Dr",
        -9.772366983406918
      ],
      [
        "publication",
        -9.772401111473465
      ],
      [
        "Bob",
        -9.772721203347292
      ],
      [
        "opera",
        -9.774617654575806
      ],
      [
        "blood",
        -9.775905986654081
      ],
      [
        "defense",
        -9.777257015618847
      ],
      [
        "Of",
        -9.777260254068835
      ],
      [
        "150",
        -9.777639655110573
      ],
      [
        "Young",
        -9.778051078640084
      ],
      [
        "relief",
        -9.778057069754796
      ],
      [
        "core",
        -9.779900767956075
      ],
      [
        "Games",
        -9.781214282030753
      ],
      [
        "Flori",
        -9.781701276961789
      ],
      [
        "almos",
        -9.781775719946069
      ],
      [
        "China",
        -9.78217847101848
      ],
      [
        "sixth",
        -9.783467764389817
      ],
      [
        "castle",
        -9.78360672023613
      ],
      [
        "societ",
        -9.783750500085691
      ],
      [
        "extreme",
        -9.78375051671356
      ],
      [
        "matche",
        -9.783761969425331
      ],
      [
        "Egyptian",
        -9.783792738350128
      ],
      [
        "Highway",
        -9.784182565212166
      ],
      [
        "pop",
        -9.78658013137796
      ],
      [
        "wing",
        -9.788605514885829
      ],
      [
        "Smith",
        -9.788950082568931
      ],
      [
        "engine",
        -9.789002169477758
      ],
      [
        "science",
        -9.789023627103564
      ],
      [
        "dark",
        -9.789779883301676
      ],
      [
        "Societ",
        -9.791033236977597
      ],
      [
        "facilit",
        -9.791258426532258
      ],
      [
        "shell",
        -9.791966786282831
      ],
      [
        "era",
        -9.792473651675564
      ],
      [
        "divide",
        -9.793708017832483
      ],
      [
        "inkel",
        -9.793754140238665
      ],
      [
        "Marine",
        -9.793768117383337
      ],
      [
        "opene",
        -9.794167564121587
      ],
      [
        "walk",
        -9.795017733828285
      ],
      [
        "survive",
        -9.79514890598109
      ],
      [
        "mile",
        -9.79550393941236
      ],
      [
        "drew",
        -9.796176083811718
      ],
      [
        "Meyerbeer",
        -9.796866892576993
      ],
      [
        "49",
        -9.79714832202323
      ],
      [
        "planet",
        -9.797345271168851
      ],
      [
        "Shiva",
        -9.797500005991356
      ],
      [
        "Helm",
        -9.797521107096781
      ],
      [
        "earne",
        -9.79769389765054
      ],
      [
        "legal",
        -9.79773075378249
      ],
      [
        "street",
        -9.797771188813638
      ],
      [
        "suffere",
        -9.799174260244989
      ],
      [
        "creat",
        -9.799627456975841
      ],
      [
        "ng",
        -9.799887524143681
      ],
      [
        "wear",
        -9.799889321849996
      ],
      [
        "Yue",
        -9.800740123181285
      ],
      [
        "cricket",
        -9.801278397971465
      ],
      [
        "reflect",
        -9.803305802777171
      ],
      [
        "financial",
        -9.80349224311203
      ],
      [
        "path",
        -9.803697538976234
      ],
      [
        "rang",
        -9.804341904157166
      ],
      [
        "weaken",
        -9.80461254259028
      ],
      [
        "Van",
        -9.805174443260658
      ],
      [
        "Nicole",
        -9.805332129136545
      ],
      [
        "los",
        -9.805424825868254
      ],
      [
        "Boy",
        -9.805932057163847
      ],
      [
        "Long",
        -9.805950938375048
      ],
      [
        "outhern",
        -9.806345960995028
      ],
      [
        "weight",
        -9.80640789358547
      ],
      [
        "Horse",
        -9.806580458599226
      ],
      [
        "que",
        -9.808517692555462
      ],
      [
        "lane",
        -9.80895450698368
      ],
      [
        "Operation",
        -9.809949503793797
      ],
      [
        "37",
        -9.80998689009828
      ],
      [
        "cougar",
        -9.810154738710015
      ],
      [
        "honor",
        -9.810573766103897
      ],
      [
        "Co",
        -9.814785126255648
      ],
      [
        "Middle",
        -9.81558916353761
      ],
      [
        "murder",
        -9.815607845598539
      ],
      [
        "extra",
        -9.815897761971245
      ],
      [
        "brown",
        -9.816018963644606
      ],
      [
        "attention",
        -9.816894214166606
      ],
      [
        "cultural",
        -9.816906437135678
      ],
      [
        "opportunit",
        -9.817064771596213
      ],
      [
        "matter",
        -9.817200369289463
      ],
      [
        "carry",
        -9.817547210740486
      ],
      [
        "Academ",
        -9.818304378737846
      ],
      [
        "background",
        -9.819466981087078
      ],
      [
        "expected",
        -9.820188082608638
      ],
      [
        "een",
        -9.820500447461146
      ],
      [
        "aware",
        -9.822169639086779
      ],
      [
        "inside",
        -9.82221397291136
      ],
      [
        "casualt",
        -9.822379798590365
      ],
      [
        "friends",
        -9.823092633137799
      ],
      [
        "Government",
        -9.82362733651631
      ],
      [
        "hospital",
        -9.823635084929201
      ],
      [
        "colour",
        -9.82366701181224
      ],
      [
        "technique",
        -9.823730014965445
      ],
      [
        "ture",
        -9.82373946700255
      ],
      [
        "reaction",
        -9.825504067455352
      ],
      [
        "content",
        -9.826412259250075
      ],
      [
        "ll",
        -9.82935999194006
      ],
      [
        "Easter",
        -9.829455265133387
      ],
      [
        "offensive",
        -9.829771034018304
      ],
      [
        "Master",
        -9.830337765487261
      ],
      [
        "Hamel",
        -9.830438007197316
      ],
      [
        "assault",
        -9.83050767123948
      ],
      [
        "composition",
        -9.830767422798441
      ],
      [
        "Post",
        -9.830940400542548
      ],
      [
        "ur",
        -9.831656988785973
      ],
      [
        "slight",
        -9.834967214103797
      ],
      [
        "wind",
        -9.835958354012774
      ],
      [
        "care",
        -9.836298029508537
      ],
      [
        "crowd",
        -9.836469560118363
      ],
      [
        "Home",
        -9.836777299793777
      ],
      [
        "183",
        -9.837141377581148
      ],
      [
        "vehicle",
        -9.8372825858245
      ],
      [
        "specimen",
        -9.837293048389492
      ],
      [
        "website",
        -9.837310187206713
      ],
      [
        "appeal",
        -9.83736226121151
      ],
      [
        "Age",
        -9.838317638358685
      ],
      [
        "winter",
        -9.838553898234997
      ],
      [
        "wealth",
        -9.838967110180093
      ],
      [
        "recognize",
        -9.838999442260747
      ],
      [
        "hair",
        -9.839795199707222
      ],
      [
        "Johnson",
        -9.839811192461946
      ],
      [
        "Turk",
        -9.841502332403113
      ],
      [
        "fiction",
        -9.842324115012634
      ],
      [
        "surrounding",
        -9.843581762260218
      ],
      [
        "square",
        -9.844206525132142
      ],
      [
        "soundtrack",
        -9.844554779324717
      ],
      [
        "Six",
        -9.84471123043649
      ],
      [
        "primari",
        -9.845759704345852
      ],
      [
        "34",
        -9.846131503120077
      ],
      [
        "build",
        -9.84787938254884
      ],
      [
        "Portugues",
        -9.851116069287862
      ],
      [
        "Edward",
        -9.851136259076958
      ],
      [
        "volume",
        -9.85117116692016
      ],
      [
        "thousand",
        -9.851273300962221
      ],
      [
        "Little",
        -9.853369604588533
      ],
      [
        "phase",
        -9.854784737407911
      ],
      [
        "inter",
        -9.85492096006384
      ],
      [
        "landing",
        -9.857498220599993
      ],
      [
        "master",
        -9.857534404119892
      ],
      [
        "Captain",
        -9.858109940043951
      ],
      [
        "Group",
        -9.858139380280734
      ],
      [
        "alone",
        -9.859483469031082
      ],
      [
        "imply",
        -9.859504467459473
      ],
      [
        "transferr",
        -9.860669705874688
      ],
      [
        "Fey",
        -9.861111777099268
      ],
      [
        "Ver",
        -9.861350657872947
      ],
      [
        "books",
        -9.861520640416954
      ],
      [
        "nel",
        -9.861914359302656
      ],
      [
        "store",
        -9.86206009777381
      ],
      [
        "task",
        -9.864302524038393
      ],
      [
        "older",
        -9.865012570770126
      ],
      [
        "infantry",
        -9.86520231219234
      ],
      [
        "iving",
        -9.865224824191479
      ],
      [
        "Though",
        -9.865408757053354
      ],
      [
        "economic",
        -9.865886874292373
      ],
      [
        "Apple",
        -9.866128912794812
      ],
      [
        "Spain",
        -9.86673305975361
      ],
      [
        "session",
        -9.866747522694858
      ],
      [
        "prominent",
        -9.866865088768423
      ],
      [
        "wise",
        -9.867330440466016
      ],
      [
        "Pop",
        -9.867585239557519
      ],
      [
        "hands",
        -9.867900461559785
      ],
      [
        "contrast",
        -9.869338883664316
      ],
      [
        "fensive",
        -9.869615807358079
      ],
      [
        "sets",
        -9.86989377323664
      ],
      [
        "miss",
        -9.87047678438581
      ],
      [
        "Art",
        -9.87137391356334
      ],
      [
        "Lord",
        -9.872130686199444
      ],
      [
        "layer",
        -9.87274082548859
      ],
      [
        "Mountain",
        -9.873041813237322
      ],
      [
        "extensive",
        -9.87305991391899
      ],
      [
        "launch",
        -9.873673793182551
      ],
      [
        "coin",
        -9.873966077276995
      ],
      [
        "Balti",
        -9.874581041830432
      ],
      [
        "broad",
        -9.874878048919113
      ],
      [
        "independent",
        -9.87495421388168
      ],
      [
        "wa",
        -9.876008156177884
      ],
      [
        "bad",
        -9.876115239059647
      ],
      [
        "Tom",
        -9.876280981331352
      ],
      [
        "Water",
        -9.87692316658509
      ],
      [
        "bound",
        -9.877950087610994
      ],
      [
        "Welsh",
        -9.879391877269796
      ],
      [
        "Tintin",
        -9.87944274085976
      ],
      [
        "inches",
        -9.879604723874348
      ],
      [
        "receiv",
        -9.880268575446092
      ],
      [
        "ating",
        -9.882825512462993
      ],
      [
        "rich",
        -9.882848744644658
      ],
      [
        "rose",
        -9.884369437101824
      ],
      [
        "object",
        -9.884562792956288
      ],
      [
        "deit",
        -9.884805807037143
      ],
      [
        "portray",
        -9.885389531992484
      ],
      [
        "caus",
        -9.886399187918045
      ],
      [
        "Empire",
        -9.886581196494628
      ],
      [
        "window",
        -9.886591570585129
      ],
      [
        "retain",
        -9.886867356696824
      ],
      [
        "computer",
        -9.88718016349382
      ],
      [
        "nest",
        -9.887191795709892
      ],
      [
        "Land",
        -9.88720015060778
      ],
      [
        "teams",
        -9.88741402230122
      ],
      [
        "sustain",
        -9.887825400185688
      ],
      [
        "65",
        -9.888446093915153
      ],
      [
        "reign",
        -9.889099280570562
      ],
      [
        "risk",
        -9.889157444330406
      ],
      [
        "eception",
        -9.890329136261213
      ],
      [
        "Eva",
        -9.891414208385106
      ],
      [
        "attend",
        -9.8925543590683
      ],
      [
        "threat",
        -9.893437740930572
      ],
      [
        "archaeolog",
        -9.893821107189074
      ],
      [
        "comed",
        -9.893865539777174
      ],
      [
        "Del",
        -9.893871372431647
      ],
      [
        "Nesbitt",
        -9.893875432834253
      ],
      [
        "succeed",
        -9.893906197268315
      ],
      [
        "description",
        -9.894105633488572
      ],
      [
        "organ",
        -9.89465243408305
      ],
      [
        "Ceres",
        -9.895382550659999
      ],
      [
        "SR",
        -9.89771403767099
      ],
      [
        "reviewer",
        -9.89774316638734
      ],
      [
        "function",
        -9.897789844696879
      ],
      [
        "Israel",
        -9.899389977588509
      ],
      [
        "Odaenath",
        -9.901125985979332
      ],
      [
        "domestic",
        -9.90112744432356
      ],
      [
        "Sarnia",
        -9.901130122265075
      ],
      [
        "pilot",
        -9.901130251041591
      ],
      [
        "captain",
        -9.901133054343175
      ],
      [
        "Go",
        -9.901696185297055
      ],
      [
        "hire",
        -9.902485927175778
      ],
      [
        "Y",
        -9.903184091328674
      ],
      [
        "Illinois",
        -9.904505502037125
      ],
      [
        "block",
        -9.905153121782185
      ],
      [
        "acid",
        -9.905764886133767
      ],
      [
        "ownsend",
        -9.90636614798365
      ],
      [
        "Lock",
        -9.908087547963824
      ],
      [
        "Zho",
        -9.908250405205127
      ],
      [
        "except",
        -9.908283060492742
      ],
      [
        "county",
        -9.908676970265699
      ],
      [
        "64",
        -9.909306258046062
      ],
      [
        "bid",
        -9.909731288772903
      ],
      [
        "Mik",
        -9.911020264705723
      ],
      [
        "viewers",
        -9.912609807875164
      ],
      [
        "wenty",
        -9.913080302204673
      ],
      [
        "Book",
        -9.914335779989411
      ],
      [
        "seat",
        -9.914353833771454
      ],
      [
        "draft",
        -9.915149777116774
      ],
      [
        "Engineer",
        -9.91595545758663
      ],
      [
        "championship",
        -9.916175930526707
      ],
      [
        "Wash",
        -9.916379593437634
      ],
      [
        "ter",
        -9.916956425916501
      ],
      [
        "sport",
        -9.917161319924187
      ],
      [
        "cake",
        -9.91721924565967
      ],
      [
        "Sara",
        -9.91741620732414
      ],
      [
        "agent",
        -9.917531380735612
      ],
      [
        "memor",
        -9.917729563154928
      ],
      [
        "Town",
        -9.919449384156444
      ],
      [
        "ski",
        -9.919485909903111
      ],
      [
        "discovere",
        -9.91968542848131
      ],
      [
        "elling",
        -9.919755236574744
      ],
      [
        "jump",
        -9.920061396293871
      ],
      [
        "der",
        -9.920191863813171
      ],
      [
        "sales",
        -9.920201558886367
      ],
      [
        "6th",
        -9.921064313818732
      ],
      [
        "maximu",
        -9.921280238758376
      ],
      [
        "1920",
        -9.921943902591291
      ],
      [
        "Stone",
        -9.922025577153263
      ],
      [
        "inning",
        -9.922093790733253
      ],
      [
        "occupie",
        -9.923350283666037
      ],
      [
        "Perón",
        -9.923355079426095
      ],
      [
        "Simpson",
        -9.923358408339517
      ],
      [
        "apparent",
        -9.923366988048985
      ],
      [
        "entrance",
        -9.9235875037052
      ],
      [
        "cit",
        -9.924063298714238
      ],
      [
        "Manch",
        -9.924786065079036
      ],
      [
        "union",
        -9.925005714318466
      ],
      [
        "Ocean",
        -9.927397247879185
      ],
      [
        "planne",
        -9.930174433628356
      ],
      [
        "Wilhelm",
        -9.93086906448108
      ],
      [
        "Thunderbird",
        -9.930880756119706
      ],
      [
        "yellow",
        -9.930883285744727
      ],
      [
        "Week",
        -9.930916799123366
      ],
      [
        "kakapo",
        -9.93093150650925
      ],
      [
        "oil",
        -9.930959457991609
      ],
      [
        "chapter",
        -9.9310627621261
      ],
      [
        "habitat",
        -9.931281841873965
      ],
      [
        "urus",
        -9.931673357308895
      ],
      [
        "item",
        -9.932445505013622
      ],
      [
        "Varan",
        -9.932919682184512
      ],
      [
        "northeast",
        -9.93356887125946
      ],
      [
        "words",
        -9.93385660738769
      ],
      [
        "Gold",
        -9.934461599284333
      ],
      [
        "basi",
        -9.936279172696459
      ],
      [
        "Common",
        -9.937376065427781
      ],
      [
        "lorida",
        -9.938055834529788
      ],
      [
        "doing",
        -9.938347124047032
      ],
      [
        "monument",
        -9.938444651258939
      ],
      [
        "cadmi",
        -9.938478955673094
      ],
      [
        "opponent",
        -9.938583428415075
      ],
      [
        "dedicate",
        -9.939017379692306
      ],
      [
        "delay",
        -9.939463889068264
      ],
      [
        "happen",
        -9.939545068545495
      ],
      [
        "designate",
        -9.940144748307057
      ],
      [
        "partial",
        -9.940279832299836
      ],
      [
        "intensi",
        -9.940355703761236
      ],
      [
        "wild",
        -9.940431167630159
      ],
      [
        "ure",
        -9.941012259271686
      ],
      [
        "More",
        -9.942808334249431
      ],
      [
        "feeling",
        -9.942971153078679
      ],
      [
        "narrow",
        -9.943602516962958
      ],
      [
        "Torre",
        -9.945094352850575
      ],
      [
        "Har",
        -9.94570282124807
      ],
      [
        "Omaha",
        -9.94607769533518
      ],
      [
        "contact",
        -9.94610574396522
      ],
      [
        "label",
        -9.946283371257685
      ],
      [
        "combat",
        -9.947036500931008
      ],
      [
        "transit",
        -9.947127905080798
      ],
      [
        "51",
        -9.947166447825996
      ],
      [
        "tried",
        -9.947549091428396
      ],
      [
        "Ever",
        -9.949088741347374
      ],
      [
        "kovic",
        -9.94954510923693
      ],
      [
        "mix",
        -9.951513414051766
      ],
      [
        "flank",
        -9.952603802800418
      ],
      [
        "Bowl",
        -9.952934671739666
      ],
      [
        "necessar",
        -9.95331907112639
      ],
      [
        "Dot",
        -9.953608546654763
      ],
      [
        "Joseph",
        -9.95377903473266
      ],
      [
        "failure",
        -9.953875498923967
      ],
      [
        "pattern",
        -9.953951610764651
      ],
      [
        "rainfall",
        -9.95405849289965
      ],
      [
        "possibl",
        -9.955032644452494
      ],
      [
        "rear",
        -9.956127622153685
      ],
      [
        "destroye",
        -9.956128966137433
      ],
      [
        "tracks",
        -9.957081109188929
      ],
      [
        "chief",
        -9.959461665364875
      ],
      [
        "Fleet",
        -9.9615714372515
      ],
      [
        "attract",
        -9.96167131896011
      ],
      [
        "starling",
        -9.961756628358604
      ],
      [
        "royal",
        -9.962291130565255
      ],
      [
        "Innis",
        -9.962877221979316
      ],
      [
        "Mogadish",
        -9.965205885569418
      ],
      [
        "challenge",
        -9.96557505749595
      ],
      [
        "les",
        -9.966323849962372
      ],
      [
        "energ",
        -9.96731249405105
      ],
      [
        "rescue",
        -9.96757394890479
      ],
      [
        "guest",
        -9.968908809080869
      ],
      [
        "Assembl",
        -9.96933391301948
      ],
      [
        "buri",
        -9.96987936220848
      ],
      [
        "institution",
        -9.969922869552352
      ],
      [
        "rival",
        -9.970220618263198
      ],
      [
        "Andrew",
        -9.971105629148202
      ],
      [
        "nominate",
        -9.971534833967763
      ],
      [
        "student",
        -9.972038375151888
      ],
      [
        "heart",
        -9.973047445715316
      ],
      [
        "hood",
        -9.973950114711421
      ],
      [
        "Civil",
        -9.974134452729853
      ],
      [
        "Mean",
        -9.975405039883942
      ],
      [
        "athlete",
        -9.977208198868688
      ],
      [
        "museum",
        -9.977222235059457
      ],
      [
        "McCall",
        -9.977276431632783
      ],
      [
        "religion",
        -9.977321743126966
      ],
      [
        "Airport",
        -9.977474673236152
      ],
      [
        "semi",
        -9.977547842604183
      ],
      [
        "district",
        -9.978020166903924
      ],
      [
        "180",
        -9.98044260648582
      ],
      [
        "roll",
        -9.981700438477036
      ],
      [
        "AI",
        -9.982287453099925
      ],
      [
        "kept",
        -9.982516803378413
      ],
      [
        "comic",
        -9.983476730062389
      ],
      [
        "secret",
        -9.9837758268393
      ],
      [
        "unique",
        -9.98522342282386
      ],
      [
        "participate",
        -9.985536949919597
      ],
      [
        "criticize",
        -9.987038965983082
      ],
      [
        "fast",
        -9.987852550645393
      ],
      [
        "describ",
        -9.98810860361273
      ],
      [
        "storyline",
        -9.988585591859804
      ],
      [
        "inch",
        -9.988925343031905
      ],
      [
        "53",
        -9.990011450443607
      ],
      [
        "contribute",
        -9.991011725206198
      ],
      [
        "Der",
        -9.99176747757144
      ],
      [
        "52",
        -9.992240168243
      ],
      [
        "characteristic",
        -9.992881671980765
      ],
      [
        "Jupiter",
        -9.993144446596723
      ],
      [
        "sky",
        -9.993850232867409
      ],
      [
        "Forest",
        -9.994256092669325
      ],
      [
        "product",
        -9.99519621348453
      ],
      [
        "Cole",
        -9.996174549693777
      ],
      [
        "pick",
        -9.9969753618897
      ],
      [
        "Not",
        -9.997692844757914
      ],
      [
        "produc",
        -9.999533937205216
      ],
      [
        "plann",
        -9.99953924636192
      ],
      [
        "equip",
        -10.001146906117569
      ],
      [
        "nomination",
        -10.001162794727604
      ],
      [
        "depth",
        -10.001219497490876
      ],
      [
        "floor",
        -10.001238175679541
      ],
      [
        "compound",
        -10.001253243990153
      ],
      [
        "Kent",
        -10.001539265966088
      ],
      [
        "twic",
        -10.001763807637744
      ],
      [
        "Valley",
        -10.001817323719209
      ],
      [
        "Way",
        -10.001891718633587
      ],
      [
        "kare",
        -10.002667050334175
      ],
      [
        "ux",
        -10.002809549161853
      ],
      [
        "600",
        -10.002919781072155
      ],
      [
        "else",
        -10.003656044580898
      ],
      [
        "multi",
        -10.006054607227131
      ],
      [
        "mark",
        -10.006680234047977
      ],
      [
        "desire",
        -10.007089315978662
      ],
      [
        "thems",
        -10.00769986868011
      ],
      [
        "spring",
        -10.009169262920675
      ],
      [
        "kg",
        -10.009256393152711
      ],
      [
        "consecutive",
        -10.009339020099072
      ],
      [
        "DVD",
        -10.009346453012999
      ],
      [
        "delphi",
        -10.00935594995429
      ],
      [
        "Greek",
        -10.009441176009432
      ],
      [
        "Djed",
        -10.009820960850988
      ],
      [
        "attribute",
        -10.01001315646879
      ],
      [
        "creation",
        -10.01044565231923
      ],
      [
        "Four",
        -10.010977692310775
      ],
      [
        "securit",
        -10.011821674190035
      ],
      [
        "continu",
        -10.012049334748607
      ],
      [
        "Line",
        -10.012351988266634
      ],
      [
        "armor",
        -10.012632878075141
      ],
      [
        "occasional",
        -10.013172119099
      ],
      [
        "hann",
        -10.01327712336996
      ],
      [
        "origin",
        -10.013710169528807
      ],
      [
        "shift",
        -10.0141526640245
      ],
      [
        "negative",
        -10.017135913811636
      ],
      [
        "dom",
        -10.017356314117212
      ],
      [
        "vessel",
        -10.017575605946785
      ],
      [
        "seek",
        -10.01759181041389
      ],
      [
        "permanent",
        -10.018509237693284
      ],
      [
        "chance",
        -10.019567187864848
      ],
      [
        "var",
        -10.020061783599289
      ],
      [
        "Sky",
        -10.020064675701708
      ],
      [
        "iron",
        -10.020101545826407
      ],
      [
        "idden",
        -10.020452476300356
      ],
      [
        "ward",
        -10.021056668323897
      ],
      [
        "obtain",
        -10.025801101047414
      ],
      [
        "opinion",
        -10.02581451818839
      ],
      [
        "turne",
        -10.025831830879586
      ],
      [
        "airport",
        -10.026510517648944
      ],
      [
        "trip",
        -10.027915279084056
      ],
      [
        "Big",
        -10.02808883069335
      ],
      [
        "CE",
        -10.028101163777821
      ],
      [
        "Dam",
        -10.02827041403775
      ],
      [
        "orbit",
        -10.029878432863335
      ],
      [
        "NC",
        -10.030737011109272
      ],
      [
        "retire",
        -10.032274957285047
      ],
      [
        "graph",
        -10.03254853212119
      ],
      [
        "gre",
        -10.032853187368387
      ],
      [
        "kick",
        -10.033426694336494
      ],
      [
        "Science",
        -10.034135854837338
      ],
      [
        "Institute",
        -10.034203868348161
      ],
      [
        "famous",
        -10.034578553946622
      ],
      [
        "Child",
        -10.035266136782633
      ],
      [
        "threaten",
        -10.035406460835183
      ],
      [
        "dance",
        -10.036631500012444
      ],
      [
        "Free",
        -10.036836749547945
      ],
      [
        "executive",
        -10.037690732537008
      ],
      [
        "analysi",
        -10.037874101253125
      ],
      [
        "refer",
        -10.037934667103908
      ],
      [
        "treatment",
        -10.039067001123511
      ],
      [
        "struggle",
        -10.039275335862492
      ],
      [
        "owner",
        -10.041232846113171
      ],
      [
        "1987",
        -10.041256040083562
      ],
      [
        "spot",
        -10.04126131130591
      ],
      [
        "ntil",
        -10.041496710001898
      ],
      [
        "Bir",
        -10.042197759236345
      ],
      [
        "technolog",
        -10.042466375993538
      ],
      [
        "height",
        -10.042511264796886
      ],
      [
        "supply",
        -10.042540241296777
      ],
      [
        "channel",
        -10.042544004456705
      ],
      [
        "encounter",
        -10.043431810758316
      ],
      [
        "tank",
        -10.043793644259988
      ],
      [
        "bowl",
        -10.044183911942458
      ],
      [
        "Si",
        -10.045150750112203
      ],
      [
        "Kh",
        -10.047154813327271
      ],
      [
        "Ca",
        -10.047588913319052
      ],
      [
        "rail",
        -10.047665814806374
      ],
      [
        "96",
        -10.048022972505741
      ],
      [
        "55",
        -10.049019156132635
      ],
      [
        "peace",
        -10.049350552646903
      ],
      [
        "visual",
        -10.050970184179999
      ],
      [
        "SAFE",
        -10.051011817104087
      ],
      [
        "weather",
        -10.051056699704848
      ],
      [
        "withdraw",
        -10.051812681198575
      ],
      [
        "editor",
        -10.051950312912991
      ],
      [
        "your",
        -10.05282935080487
      ],
      [
        "BBC",
        -10.052847606398675
      ],
      [
        "warm",
        -10.05288228606431
      ],
      [
        "civil",
        -10.053475244786563
      ],
      [
        "Pol",
        -10.057153931847779
      ],
      [
        "fur",
        -10.057382108909632
      ],
      [
        "Ben",
        -10.0578661075518
      ],
      [
        "agement",
        -10.058232745601538
      ],
      [
        "Abu",
        -10.0586402862758
      ],
      [
        "knowledge",
        -10.059568029244309
      ],
      [
        "association",
        -10.059574190472151
      ],
      [
        "Minister",
        -10.059598691908349
      ],
      [
        "invasion",
        -10.059896372451409
      ],
      [
        "possibilit",
        -10.060294917613822
      ],
      [
        "teacher",
        -10.060348686210244
      ],
      [
        "56",
        -10.06067331462744
      ],
      [
        "Michi",
        -10.06101826032333
      ],
      [
        "54",
        -10.061143086533448
      ],
      [
        "Croatia",
        -10.06141998524713
      ],
      [
        "growth",
        -10.061837211003354
      ],
      [
        "expresse",
        -10.061995564971836
      ],
      [
        "respect",
        -10.063642756670315
      ],
      [
        "types",
        -10.063880516497843
      ],
      [
        "Due",
        -10.067017724453532
      ],
      [
        "fear",
        -10.067236632863647
      ],
      [
        "statement",
        -10.06727161364038
      ],
      [
        "Good",
        -10.068051735011338
      ],
      [
        "finding",
        -10.068056104778147
      ],
      [
        "council",
        -10.068174984962353
      ],
      [
        "sculpture",
        -10.068267324474569
      ],
      [
        "Further",
        -10.06828620921413
      ],
      [
        "freeway",
        -10.069172634812658
      ],
      [
        "ated",
        -10.0693714638427
      ],
      [
        "Martin",
        -10.07012132936379
      ],
      [
        "miner",
        -10.070359841801714
      ],
      [
        "Tu",
        -10.073290289902296
      ],
      [
        "zone",
        -10.074041151473144
      ],
      [
        "prepared",
        -10.074224961201935
      ],
      [
        "folk",
        -10.076656274814333
      ],
      [
        "becom",
        -10.07673696936228
      ],
      [
        "perfect",
        -10.076837673626724
      ],
      [
        "Video",
        -10.076908996862839
      ],
      [
        "firm",
        -10.076985286321737
      ],
      [
        "HMS",
        -10.077010978822518
      ],
      [
        "Jain",
        -10.077066231836469
      ],
      [
        "big",
        -10.077411736498576
      ],
      [
        "laid",
        -10.077507677861636
      ],
      [
        "killing",
        -10.077846225238968
      ],
      [
        "repair",
        -10.078515566559007
      ],
      [
        "fox",
        -10.078601016863566
      ],
      [
        "rights",
        -10.08017578822987
      ],
      [
        "campus",
        -10.080254249829036
      ],
      [
        "184",
        -10.080970886865266
      ],
      [
        "teaching",
        -10.08123456868109
      ],
      [
        "95",
        -10.082907518244937
      ],
      [
        "simple",
        -10.08310069185304
      ],
      [
        "northwest",
        -10.083430509895152
      ],
      [
        "Even",
        -10.083554854571423
      ],
      [
        "destroyer",
        -10.083580681150973
      ],
      [
        "depend",
        -10.083825212675865
      ],
      [
        "instrument",
        -10.084309126721127
      ],
      [
        "hat",
        -10.084403920564167
      ],
      [
        "dropp",
        -10.085001991241704
      ],
      [
        "Barrow",
        -10.086249758617221
      ],
      [
        "counter",
        -10.087581747306132
      ],
      [
        "stock",
        -10.08760115133672
      ],
      [
        "Bridge",
        -10.088831317095522
      ],
      [
        "drum",
        -10.091517709496763
      ],
      [
        "gate",
        -10.09257682864119
      ],
      [
        "Phila",
        -10.093495451894348
      ],
      [
        "publish",
        -10.093811997374367
      ],
      [
        "progress",
        -10.093964545598702
      ],
      [
        "Congress",
        -10.094503450001637
      ],
      [
        "federal",
        -10.094503665308757
      ],
      [
        "gradual",
        -10.094504898917211
      ],
      [
        "criticism",
        -10.094956462754553
      ],
      [
        "Keats",
        -10.094973705417889
      ],
      [
        "bottom",
        -10.095052390419818
      ],
      [
        "Slam",
        -10.095084957999315
      ],
      [
        "spend",
        -10.095207747863313
      ],
      [
        "arrest",
        -10.0952848846263
      ],
      [
        "landfall",
        -10.095994973162059
      ],
      [
        "End",
        -10.096187869034898
      ],
      [
        "incorporate",
        -10.096982941654364
      ],
      [
        "ceremon",
        -10.09786291514963
      ],
      [
        "agreement",
        -10.099301126026486
      ],
      [
        "supplie",
        -10.100005037295986
      ],
      [
        "provid",
        -10.100022548297021
      ],
      [
        "Tenn",
        -10.102188428408809
      ],
      [
        "page",
        -10.102622162295791
      ],
      [
        "kilometre",
        -10.103427816500869
      ],
      [
        "difference",
        -10.103440454982428
      ],
      [
        "Premier",
        -10.10348312314617
      ],
      [
        "civilian",
        -10.103498020078495
      ],
      [
        "belief",
        -10.103591902557348
      ],
      [
        "120",
        -10.103617617760266
      ],
      [
        "verse",
        -10.103627455037852
      ],
      [
        "Morris",
        -10.103992694520922
      ],
      [
        "shire",
        -10.104847251517203
      ],
      [
        "strengthen",
        -10.105005271135344
      ],
      [
        "rain",
        -10.105760545380047
      ],
      [
        "foundation",
        -10.107392435877307
      ],
      [
        "debate",
        -10.108785970819689
      ],
      [
        "stop",
        -10.108837584164647
      ],
      [
        "efore",
        -10.110327090631813
      ],
      [
        "solo",
        -10.110610119897348
      ],
      [
        "Album",
        -10.112437606553286
      ],
      [
        "Dutch",
        -10.112440452084305
      ],
      [
        "ldest",
        -10.11247185150682
      ],
      [
        "silver",
        -10.112532181035458
      ],
      [
        "budget",
        -10.112598022566369
      ],
      [
        "Additional",
        -10.112664648880477
      ],
      [
        "connection",
        -10.113334524424445
      ],
      [
        "divine",
        -10.113469507949949
      ],
      [
        "derive",
        -10.113558411063586
      ],
      [
        "Max",
        -10.113796372335212
      ],
      [
        "Steve",
        -10.11498495391185
      ],
      [
        "43",
        -10.11533586582684
      ],
      [
        "pro",
        -10.116264841460083
      ],
      [
        "Jim",
        -10.116298391472071
      ],
      [
        "hill",
        -10.117326089909476
      ],
      [
        "dominate",
        -10.117413537117642
      ],
      [
        "occasion",
        -10.117842064502806
      ],
      [
        "define",
        -10.119334053232933
      ],
      [
        "Festival",
        -10.121524838852224
      ],
      [
        "actress",
        -10.121553615758762
      ],
      [
        "Nathan",
        -10.12209375760332
      ],
      [
        "Gord",
        -10.122828410782923
      ],
      [
        "generation",
        -10.123683594984472
      ],
      [
        "Down",
        -10.126043652781703
      ],
      [
        "rank",
        -10.126399190359638
      ],
      [
        "foreign",
        -10.12861131968368
      ],
      [
        "multiple",
        -10.128702693800722
      ],
      [
        "clean",
        -10.12977938330408
      ],
      [
        "frame",
        -10.130105736631648
      ],
      [
        "drawing",
        -10.130479114921833
      ],
      [
        "college",
        -10.130776964979738
      ],
      [
        "observation",
        -10.13082530018887
      ],
      [
        "onference",
        -10.130892443786072
      ],
      [
        "46",
        -10.130930564947146
      ],
      [
        "premiere",
        -10.13422639527206
      ],
      [
        "acquire",
        -10.134391746485077
      ],
      [
        "newly",
        -10.134766385258464
      ],
      [
        "super",
        -10.13542997739306
      ],
      [
        "fill",
        -10.135682293232005
      ],
      [
        "adopte",
        -10.136808870335617
      ],
      [
        "arrangement",
        -10.139484865674822
      ],
      [
        "nucleus",
        -10.139958374226293
      ],
      [
        "restaurant",
        -10.139959850383956
      ],
      [
        "excavation",
        -10.139975010398096
      ],
      [
        "allowe",
        -10.140239330950612
      ],
      [
        "candidate",
        -10.140356121594252
      ],
      [
        "designe",
        -10.140863744107808
      ],
      [
        "Ranger",
        -10.14106478665843
      ],
      [
        "Gar",
        -10.141389954087474
      ],
      [
        "highlight",
        -10.14181005583914
      ],
      [
        "Ode",
        -10.141961832414612
      ],
      [
        "Haven",
        -10.142209710613217
      ],
      [
        "guide",
        -10.144397345161536
      ],
      [
        "Heart",
        -10.14511467937034
      ],
      [
        "spoke",
        -10.14563378446011
      ],
      [
        "Original",
        -10.145758792597686
      ],
      [
        "mind",
        -10.14576529226776
      ],
      [
        "transfer",
        -10.146279985645691
      ],
      [
        "ear",
        -10.146800200383609
      ],
      [
        "pai",
        -10.147767001554762
      ],
      [
        "Out",
        -10.14782914092373
      ],
      [
        "gas",
        -10.149024441539051
      ],
      [
        "victim",
        -10.149304998058199
      ],
      [
        "Gulf",
        -10.149463115747848
      ],
      [
        "inscription",
        -10.149655583328013
      ],
      [
        "Lewis",
        -10.150084531147083
      ],
      [
        "NH",
        -10.150102119563275
      ],
      [
        "94",
        -10.150154079269319
      ],
      [
        "serv",
        -10.152889949361391
      ],
      [
        "Wi",
        -10.152982345527203
      ],
      [
        "130",
        -10.153304677398236
      ],
      [
        "setting",
        -10.15447264679074
      ],
      [
        "borough",
        -10.154891689625472
      ],
      [
        "bout",
        -10.156259041284603
      ],
      [
        "outer",
        -10.156447057364026
      ],
      [
        "egg",
        -10.157392425512741
      ],
      [
        "á",
        -10.157541126855673
      ],
      [
        "committee",
        -10.15760156055341
      ],
      [
        "communication",
        -10.158182845589586
      ],
      [
        "incident",
        -10.158270427587116
      ],
      [
        "minister",
        -10.158370344920339
      ],
      [
        "recommend",
        -10.158421126269381
      ],
      [
        "Cardinal",
        -10.158751119765355
      ],
      [
        "Production",
        -10.15875567085138
      ],
      [
        "combination",
        -10.158778299024041
      ],
      [
        "Among",
        -10.158781658297098
      ],
      [
        "antimony",
        -10.159017411147731
      ],
      [
        "crime",
        -10.159044182911872
      ],
      [
        "Revolution",
        -10.159135202580657
      ],
      [
        "Temple",
        -10.159273709003733
      ],
      [
        "Girl",
        -10.159434999864843
      ],
      [
        "encourage",
        -10.159891134389907
      ],
      [
        "passage",
        -10.160060868838372
      ],
      [
        "Mario",
        -10.16104880943329
      ],
      [
        "discuss",
        -10.161182978900337
      ],
      [
        "data",
        -10.16218050563145
      ],
      [
        "Bois",
        -10.162961159491545
      ],
      [
        "Field",
        -10.163334498003048
      ],
      [
        "Op",
        -10.164331375412416
      ],
      [
        "preserve",
        -10.165742198504894
      ],
      [
        "hop",
        -10.165799640688135
      ],
      [
        "article",
        -10.167757130811314
      ],
      [
        "People",
        -10.16826444346653
      ],
      [
        "Oxford",
        -10.168281298725612
      ],
      [
        "Turner",
        -10.168389645127089
      ],
      [
        "Entertainment",
        -10.1684514322408
      ],
      [
        "Coast",
        -10.169123587569743
      ],
      [
        "Ali",
        -10.169454534530978
      ],
      [
        "winner",
        -10.169925281400712
      ],
      [
        "GA",
        -10.170131939561726
      ],
      [
        "ML",
        -10.170200388459055
      ],
      [
        "solution",
        -10.170388846406055
      ],
      [
        "feed",
        -10.17124761869851
      ],
      [
        "bank",
        -10.171786416370034
      ],
      [
        "camera",
        -10.171830012757592
      ],
      [
        "Russian",
        -10.171859366186677
      ],
      [
        "table",
        -10.173575529150163
      ],
      [
        "77",
        -10.173799235669888
      ],
      [
        "Q",
        -10.17572080076323
      ],
      [
        "dream",
        -10.175811304141753
      ],
      [
        "Review",
        -10.176438007046
      ],
      [
        "genre",
        -10.177239820201386
      ],
      [
        "promise",
        -10.177834303023712
      ],
      [
        "Arthur",
        -10.177878340848572
      ],
      [
        "hotel",
        -10.177991237112831
      ],
      [
        "intersection",
        -10.178132629560407
      ],
      [
        "ackground",
        -10.17828830376864
      ],
      [
        "objective",
        -10.178321988069088
      ],
      [
        "Fox",
        -10.17839392239727
      ],
      [
        "digital",
        -10.178713228070023
      ],
      [
        "let",
        -10.180676699041769
      ],
      [
        "vice",
        -10.181401387751182
      ],
      [
        "cave",
        -10.182398676355447
      ],
      [
        "41",
        -10.182659577133446
      ],
      [
        "motion",
        -10.182709822279424
      ],
      [
        "Joe",
        -10.18443920141867
      ],
      [
        "spore",
        -10.184512473130138
      ],
      [
        "Pa",
        -10.185221609907742
      ],
      [
        "Li",
        -10.185302543190247
      ],
      [
        "invite",
        -10.185843718416201
      ],
      [
        "cited",
        -10.186046079666527
      ],
      [
        "Commission",
        -10.186483073802357
      ],
      [
        "straight",
        -10.186757459760234
      ],
      [
        "Governor",
        -10.187611025177462
      ],
      [
        "Director",
        -10.188104994189857
      ],
      [
        "eval",
        -10.188421919951834
      ],
      [
        "assume",
        -10.18961259533228
      ],
      [
        "Ho",
        -10.190101355871853
      ],
      [
        "Allie",
        -10.190189254496804
      ],
      [
        "700",
        -10.191177938909824
      ],
      [
        "Roll",
        -10.192497447931705
      ],
      [
        "option",
        -10.192565430526548
      ],
      [
        "commission",
        -10.195510435620303
      ],
      [
        "Juan",
        -10.195644102549775
      ],
      [
        "ice",
        -10.19579179136526
      ],
      [
        "Never",
        -10.196680939512337
      ],
      [
        "Studios",
        -10.196809458333266
      ],
      [
        "Life",
        -10.1972296701137
      ],
      [
        "guard",
        -10.197274638138065
      ],
      [
        "Magazine",
        -10.197390158327408
      ],
      [
        "Muslim",
        -10.197392140492022
      ],
      [
        "expedition",
        -10.197395598534913
      ],
      [
        "accompanie",
        -10.197434425084833
      ],
      [
        "message",
        -10.197521659210455
      ],
      [
        "done",
        -10.197530366063788
      ],
      [
        "penalt",
        -10.198580687684277
      ],
      [
        "Chain",
        -10.199433586890951
      ],
      [
        "ridge",
        -10.199524581088273
      ],
      [
        "Player",
        -10.20097013256439
      ],
      [
        "batsm",
        -10.201099438301295
      ],
      [
        "green",
        -10.20260275424478
      ],
      [
        "800",
        -10.20314792841043
      ],
      [
        "Lee",
        -10.20409378014767
      ],
      [
        "USA",
        -10.204181014989185
      ],
      [
        "76",
        -10.205380715972314
      ],
      [
        "print",
        -10.20685527224904
      ],
      [
        "Evita",
        -10.20729794882326
      ],
      [
        "naval",
        -10.208016278785493
      ],
      [
        "What",
        -10.208079034980415
      ],
      [
        "cruiser",
        -10.208460021101127
      ],
      [
        "Single",
        -10.208561605405375
      ],
      [
        "vision",
        -10.209263570355809
      ],
      [
        "MD",
        -10.209321228198796
      ],
      [
        "Crown",
        -10.209692827885615
      ],
      [
        "Area",
        -10.211076146901698
      ],
      [
        "System",
        -10.21179335351373
      ],
      [
        "Ram",
        -10.212446620518147
      ],
      [
        "chair",
        -10.214633382970394
      ],
      [
        "Rome",
        -10.215989764448839
      ],
      [
        "notable",
        -10.216097506466419
      ],
      [
        "holding",
        -10.216657671791799
      ],
      [
        "technical",
        -10.217613350388298
      ],
      [
        "interaction",
        -10.217628737412802
      ],
      [
        "Bart",
        -10.217815225029256
      ],
      [
        "parallel",
        -10.218325473624148
      ],
      [
        "plain",
        -10.218551387700224
      ],
      [
        "Bishop",
        -10.218774428270278
      ],
      [
        "policy",
        -10.219493943071559
      ],
      [
        "laba",
        -10.220443854250803
      ],
      [
        "ago",
        -10.220736613150926
      ],
      [
        "billion",
        -10.2208426720236
      ],
      [
        "torpedo",
        -10.221234082771767
      ],
      [
        "Bosto",
        -10.221825642007781
      ],
      [
        "collapse",
        -10.222504512932101
      ],
      [
        "IV",
        -10.223589950756999
      ],
      [
        "lock",
        -10.22419144681367
      ],
      [
        "Fantas",
        -10.224263938888079
      ],
      [
        "sses",
        -10.224741115195268
      ],
      [
        "ays",
        -10.225293102922834
      ],
      [
        "yond",
        -10.225700360996036
      ],
      [
        "principal",
        -10.227391983998743
      ],
      [
        "mushroom",
        -10.2273921072396
      ],
      [
        "den",
        -10.227432560020972
      ],
      [
        "concret",
        -10.227461421659989
      ],
      [
        "Power",
        -10.227634325510394
      ],
      [
        "Mo",
        -10.227671501178556
      ],
      [
        "priest",
        -10.22771915966365
      ],
      [
        "Liu",
        -10.228377831445572
      ],
      [
        "unusual",
        -10.228559246983622
      ],
      [
        "retreat",
        -10.228661052721064
      ],
      [
        "Kang",
        -10.229048684431117
      ],
      [
        "forme",
        -10.230788975255876
      ],
      [
        "ler",
        -10.231099034126462
      ],
      [
        "urban",
        -10.231102644823519
      ],
      [
        "sector",
        -10.231754246208906
      ],
      [
        "historic",
        -10.233954184717357
      ],
      [
        "arrange",
        -10.234115337234776
      ],
      [
        "weak",
        -10.234154961829061
      ],
      [
        "choice",
        -10.234313523186561
      ],
      [
        "restore",
        -10.235059403093803
      ],
      [
        "ent",
        -10.235079977054923
      ],
      [
        "shoot",
        -10.236440029802537
      ],
      [
        "fuel",
        -10.23702542289066
      ],
      [
        "beach",
        -10.237049557012373
      ],
      [
        "57",
        -10.237224537165215
      ],
      [
        "drama",
        -10.237434294623606
      ],
      [
        "wait",
        -10.23745317696945
      ],
      [
        "Project",
        -10.237596065678233
      ],
      [
        "Jurchen",
        -10.237596615739694
      ],
      [
        "creator",
        -10.23956159793525
      ],
      [
        "applie",
        -10.239655286994015
      ],
      [
        "mine",
        -10.240365411957736
      ],
      [
        "boundar",
        -10.241036276237272
      ],
      [
        "reform",
        -10.241512904231895
      ],
      [
        "istrict",
        -10.242472766062019
      ],
      [
        "skin",
        -10.242773381625215
      ],
      [
        "glass",
        -10.242828012028765
      ],
      [
        "essential",
        -10.245127853473686
      ],
      [
        "Recording",
        -10.245948008938694
      ],
      [
        "Yan",
        -10.246046776884505
      ],
      [
        "85",
        -10.246192675940136
      ],
      [
        "push",
        -10.24713206734734
      ],
      [
        "emperor",
        -10.247230794897122
      ],
      [
        "protagonist",
        -10.247905592652115
      ],
      [
        "Development",
        -10.247917827834073
      ],
      [
        "Board",
        -10.247947913754036
      ],
      [
        "chorus",
        -10.247960208995739
      ],
      [
        "Summer",
        -10.247960904971603
      ],
      [
        "branch",
        -10.24813582578296
      ],
      [
        "senior",
        -10.248714706397514
      ],
      [
        "arrival",
        -10.249025328234612
      ],
      [
        "nothing",
        -10.249154206543835
      ],
      [
        "ritual",
        -10.250352943721154
      ],
      [
        "reserve",
        -10.25041497096503
      ],
      [
        "Ch",
        -10.252247683541329
      ],
      [
        "sole",
        -10.253275382144182
      ],
      [
        "strike",
        -10.25375714661862
      ],
      [
        "NL",
        -10.253847338492353
      ],
      [
        "Ital",
        -10.253938809773583
      ],
      [
        "Famil",
        -10.25451997076549
      ],
      [
        "ncient",
        -10.256958627357735
      ],
      [
        "lives",
        -10.257467727262185
      ],
      [
        "fresh",
        -10.257777622381287
      ],
      [
        "Track",
        -10.258836270745025
      ],
      [
        "survey",
        -10.25934958771605
      ],
      [
        "platform",
        -10.259424855309401
      ],
      [
        "Radio",
        -10.25946028877925
      ],
      [
        "photograph",
        -10.259952286235071
      ],
      [
        "medica",
        -10.26022745346927
      ],
      [
        "violence",
        -10.260363419029286
      ],
      [
        "judge",
        -10.261080194979609
      ],
      [
        "lies",
        -10.26153849180001
      ],
      [
        "controlle",
        -10.262091516818119
      ],
      [
        "Mac",
        -10.26333728717783
      ],
      [
        "Wil",
        -10.263425308132579
      ],
      [
        "Bo",
        -10.263662947113332
      ],
      [
        "ong",
        -10.264291951017256
      ],
      [
        "Mega",
        -10.264725190429854
      ],
      [
        "airline",
        -10.265111313934465
      ],
      [
        "Asia",
        -10.266041850287387
      ],
      [
        "hip",
        -10.266195368788003
      ],
      [
        "ell",
        -10.266396256285212
      ],
      [
        "Lis",
        -10.266429179509554
      ],
      [
        "Baby",
        -10.26643785038156
      ],
      [
        "classifie",
        -10.267140557201932
      ],
      [
        "smalle",
        -10.267268042625723
      ],
      [
        "fashion",
        -10.268200333443136
      ],
      [
        "favor",
        -10.26848781440575
      ],
      [
        "#",
        -10.268848326407568
      ],
      [
        "administration",
        -10.268849392424123
      ],
      [
        "MacLeod",
        -10.26885420984014
      ],
      [
        "representative",
        -10.26890546281475
      ],
      [
        "massive",
        -10.269292402270754
      ],
      [
        "CD",
        -10.26941686206887
      ],
      [
        "cent",
        -10.270229700706787
      ],
      [
        "settle",
        -10.270239541319121
      ],
      [
        "employ",
        -10.270247303434118
      ],
      [
        "im",
        -10.27036132130894
      ],
      [
        "roof",
        -10.271151666926665
      ],
      [
        "corn",
        -10.27245095066735
      ],
      [
        "ization",
        -10.27273121617689
      ],
      [
        "Charl",
        -10.27273364259379
      ],
      [
        "charter",
        -10.27368065214604
      ],
      [
        "72",
        -10.273967064952654
      ],
      [
        "dock",
        -10.274531186467435
      ],
      [
        "drain",
        -10.274776674699213
      ],
      [
        "formal",
        -10.275157347196192
      ],
      [
        "losse",
        -10.275621036612701
      ],
      [
        "rebel",
        -10.275667504825883
      ],
      [
        "1936",
        -10.275941587659187
      ],
      [
        "express",
        -10.276367057856872
      ],
      [
        "con",
        -10.276539926884748
      ],
      [
        "Theatr",
        -10.277822986098233
      ],
      [
        "biograph",
        -10.279047768605986
      ],
      [
        "Egypt",
        -10.279402767585598
      ],
      [
        "Admiral",
        -10.279486636033315
      ],
      [
        "Athletic",
        -10.27948679372182
      ],
      [
        "chapel",
        -10.279489917375972
      ],
      [
        "passenger",
        -10.279492288622837
      ],
      [
        "basket",
        -10.279499439572398
      ],
      [
        "fellow",
        -10.279514269473271
      ],
      [
        "eyes",
        -10.280066405833509
      ],
      [
        "Its",
        -10.280071385808203
      ],
      [
        "glades",
        -10.280169743152967
      ],
      [
        "adding",
        -10.281139628114339
      ],
      [
        "moral",
        -10.281882838509743
      ],
      [
        "spac",
        -10.281887886343217
      ],
      [
        "greate",
        -10.281894846968907
      ],
      [
        "Constantin",
        -10.282032668014685
      ],
      [
        "Jama",
        -10.282809317278174
      ],
      [
        "Anthon",
        -10.28339470922933
      ],
      [
        "ard",
        -10.28354797306418
      ],
      [
        "starr",
        -10.284218736491274
      ],
      [
        "Somali",
        -10.285242922155959
      ],
      [
        "Lo",
        -10.28647372517906
      ],
      [
        "wh",
        -10.286594196428748
      ],
      [
        "Toda",
        -10.286647718273773
      ],
      [
        "province",
        -10.290239563639584
      ],
      [
        "atmosphere",
        -10.29023991775965
      ],
      [
        "Douglas",
        -10.290241737027124
      ],
      [
        "possession",
        -10.290359183739117
      ],
      [
        "remnant",
        -10.29036075933854
      ],
      [
        "proposal",
        -10.290431537654607
      ],
      [
        "submarine",
        -10.290497134392398
      ],
      [
        "crosse",
        -10.290661992748714
      ],
      [
        "Walter",
        -10.290793716341035
      ],
      [
        "exclusive",
        -10.290998182855885
      ],
      [
        "earthquake",
        -10.291192039572362
      ],
      [
        "neck",
        -10.292829080839052
      ],
      [
        "Ro",
        -10.293800295959699
      ],
      [
        "settler",
        -10.294003443960005
      ],
      [
        "basic",
        -10.295124420452634
      ],
      [
        "Rio",
        -10.29599480045691
      ],
      [
        "sample",
        -10.296249000922298
      ],
      [
        "realize",
        -10.296523208549193
      ],
      [
        "hunt",
        -10.297676402328676
      ],
      [
        "plane",
        -10.299919803606837
      ],
      [
        "emerge",
        -10.299946383290584
      ],
      [
        "pool",
        -10.301074330912995
      ],
      [
        "Committee",
        -10.301108877686223
      ],
      [
        "Hornung",
        -10.301112782763958
      ],
      [
        "column",
        -10.301169219170468
      ],
      [
        "protection",
        -10.301231203428415
      ],
      [
        "Anonymous",
        -10.301357130735607
      ],
      [
        "perhap",
        -10.301484040313316
      ],
      [
        "surround",
        -10.302288280676283
      ],
      [
        "Golden",
        -10.302721040014882
      ],
      [
        "unsuccessful",
        -10.303014420941572
      ],
      [
        "soil",
        -10.303910103785524
      ],
      [
        "skill",
        -10.306055285101609
      ],
      [
        "sufficient",
        -10.306559378079712
      ],
      [
        "62",
        -10.30722616763523
      ],
      [
        "decide",
        -10.307263457725654
      ],
      [
        "Williams",
        -10.30841886469998
      ],
      [
        "Real",
        -10.308698615850924
      ],
      [
        "ring",
        -10.308773333714779
      ],
      [
        "compete",
        -10.308918927125514
      ],
      [
        "knot",
        -10.309751589152889
      ],
      [
        "160",
        -10.310992462774355
      ],
      [
        "Public",
        -10.311728285458523
      ],
      [
        "tadium",
        -10.311787890536461
      ],
      [
        "Brook",
        -10.31196127237035
      ],
      [
        "Lieutenant",
        -10.312097888709218
      ],
      [
        "Caribbean",
        -10.312097893465697
      ],
      [
        "involv",
        -10.312122982870452
      ],
      [
        "Democrat",
        -10.312262357359835
      ],
      [
        "grass",
        -10.312302967465332
      ],
      [
        "surviv",
        -10.312372182080896
      ],
      [
        "wedding",
        -10.312455181294208
      ],
      [
        "establishment",
        -10.313420387471634
      ],
      [
        "dog",
        -10.314097575049331
      ],
      [
        "Sunday",
        -10.31415830461543
      ],
      [
        "Prime",
        -10.314346538696682
      ],
      [
        "load",
        -10.314411896197381
      ],
      [
        "NB",
        -10.314599258761955
      ],
      [
        "nois",
        -10.31467078661765
      ],
      [
        "regime",
        -10.314941022726856
      ],
      [
        "AML",
        -10.31551929674842
      ],
      [
        "drop",
        -10.315865109600363
      ],
      [
        "emotional",
        -10.315957951054227
      ],
      [
        "Bond",
        -10.317116542826836
      ],
      [
        "correct",
        -10.317274994121565
      ],
      [
        "Ju",
        -10.318193565478403
      ],
      [
        "onica",
        -10.318411156096712
      ],
      [
        "meter",
        -10.318755480449282
      ],
      [
        "basin",
        -10.318820645216249
      ],
      [
        "61",
        -10.322856095340164
      ],
      [
        "Chels",
        -10.323135806768743
      ],
      [
        "Roger",
        -10.323326460530163
      ],
      [
        "introduction",
        -10.32338328281202
      ],
      [
        "panel",
        -10.323489441569633
      ],
      [
        "eleven",
        -10.32367683085212
      ],
      [
        "interior",
        -10.323701416237254
      ],
      [
        "Columbia",
        -10.323727630520604
      ],
      [
        "journalist",
        -10.324207574352187
      ],
      [
        "Hindu",
        -10.324282859864503
      ],
      [
        "mere",
        -10.324548026917368
      ],
      [
        "household",
        -10.324596020688642
      ],
      [
        "ERA",
        -10.324964791475121
      ],
      [
        "shooting",
        -10.324978433761972
      ],
      [
        "assembl",
        -10.325505791096333
      ],
      [
        "ruli",
        -10.32576914085327
      ],
      [
        "supposed",
        -10.32591275462335
      ],
      [
        "celebrate",
        -10.326686436784797
      ],
      [
        "Ha",
        -10.327302946808238
      ],
      [
        "door",
        -10.327355077873147
      ],
      [
        "66",
        -10.328002041319042
      ],
      [
        "Georgian",
        -10.328562862308232
      ],
      [
        "Can",
        -10.32882619221197
      ],
      [
        "successor",
        -10.329242130288318
      ],
      [
        "composer",
        -10.32987314992342
      ],
      [
        "Daniel",
        -10.329937113108187
      ],
      [
        "stand",
        -10.330123052532844
      ],
      [
        "Christ",
        -10.33063219516117
      ],
      [
        "arms",
        -10.330795495021789
      ],
      [
        "remark",
        -10.330917770102712
      ],
      [
        "adventure",
        -10.331348281174737
      ],
      [
        "resign",
        -10.331786750970087
      ],
      [
        "considerabl",
        -10.333230177043621
      ],
      [
        "deploy",
        -10.333573925372288
      ],
      [
        "econom",
        -10.33407410175278
      ],
      [
        "attain",
        -10.334191723989068
      ],
      [
        "tunnel",
        -10.334452150808733
      ],
      [
        "contest",
        -10.334484204758612
      ],
      [
        "archaeologist",
        -10.334523215381303
      ],
      [
        "exact",
        -10.334767222960187
      ],
      [
        "southwest",
        -10.334911923814168
      ],
      [
        "distribute",
        -10.335562290449557
      ],
      [
        "Holly",
        -10.335654526904264
      ],
      [
        "Romani",
        -10.33691531724387
      ],
      [
        "wor",
        -10.337466233636004
      ],
      [
        "Arts",
        -10.337710893344617
      ],
      [
        "leaders",
        -10.338691835186246
      ],
      [
        "il",
        -10.339570731702018
      ],
      [
        "headed",
        -10.342144079889032
      ],
      [
        "59",
        -10.342644299581867
      ],
      [
        "ibari",
        -10.34292809216204
      ],
      [
        "Miss",
        -10.34332161150014
      ],
      [
        "attende",
        -10.343677126150002
      ],
      [
        "Onc",
        -10.344760265997907
      ],
      [
        "yson",
        -10.345420432650354
      ],
      [
        "Iguanodon",
        -10.345758052734723
      ],
      [
        "Pro",
        -10.345777503391286
      ],
      [
        "component",
        -10.345816377848113
      ],
      [
        "DNA",
        -10.345933909000983
      ],
      [
        "convoy",
        -10.346033898138513
      ],
      [
        "truth",
        -10.346048123250956
      ],
      [
        "dispute",
        -10.34668049648166
      ],
      [
        "capacit",
        -10.347340232269488
      ],
      [
        "theatre",
        -10.348005999464284
      ],
      [
        "Venus",
        -10.348239106517434
      ],
      [
        "arc",
        -10.348375900266806
      ],
      [
        "chemical",
        -10.348504343454426
      ],
      [
        "Bon",
        -10.34912024751315
      ],
      [
        "trail",
        -10.349845151237433
      ],
      [
        "Brien",
        -10.350163305956361
      ],
      [
        "repeated",
        -10.350913165573825
      ],
      [
        "98",
        -10.351283387772124
      ],
      [
        "visitor",
        -10.351531033933178
      ],
      [
        "Perr",
        -10.352155445598498
      ],
      [
        "IG",
        -10.352933974639596
      ],
      [
        "bury",
        -10.353258794207823
      ],
      [
        "Haiti",
        -10.354273830758
      ],
      [
        "van",
        -10.355020156556115
      ],
      [
        "sides",
        -10.355430186538467
      ],
      [
        "ersey",
        -10.356339106816389
      ],
      [
        "bell",
        -10.357165025263242
      ],
      [
        "approve",
        -10.357203014873761
      ],
      [
        "speech",
        -10.3573033663857
      ],
      [
        "offense",
        -10.357319797530229
      ],
      [
        "Destin",
        -10.35739431644119
      ],
      [
        "Industr",
        -10.357418893840077
      ],
      [
        "academic",
        -10.357480156601397
      ],
      [
        "Howard",
        -10.357615577753407
      ],
      [
        "blow",
        -10.357768319280064
      ],
      [
        "rural",
        -10.358012036829052
      ],
      [
        "250",
        -10.358089516102805
      ],
      [
        "anger",
        -10.358450043839294
      ],
      [
        "89",
        -10.358711791604406
      ],
      [
        "prompt",
        -10.358801474205027
      ],
      [
        "ensure",
        -10.359461464779859
      ],
      [
        "Jones",
        -10.36066829778024
      ],
      [
        "denie",
        -10.3617432979468
      ],
      [
        "j",
        -10.36271832153643
      ],
      [
        "op",
        -10.363732266460893
      ],
      [
        "gé",
        -10.364957781534095
      ],
      [
        "Holy",
        -10.365280882043853
      ],
      [
        "Bull",
        -10.366144350118232
      ],
      [
        "unlike",
        -10.367109936948813
      ],
      [
        "deck",
        -10.367419802337773
      ],
      [
        "tomb",
        -10.368005815784107
      ],
      [
        "exit",
        -10.368310473492897
      ],
      [
        "distinct",
        -10.368539818161093
      ],
      [
        "oppose",
        -10.368722756226799
      ],
      [
        "controvers",
        -10.368852655163483
      ],
      [
        "Similar",
        -10.368931391762535
      ],
      [
        "predator",
        -10.368946123631291
      ],
      [
        "rifle",
        -10.369153282618694
      ],
      [
        "rush",
        -10.369803205732179
      ],
      [
        "Secretary",
        -10.369987138858555
      ],
      [
        "designation",
        -10.37126757319072
      ],
      [
        "graphic",
        -10.371932429028877
      ],
      [
        "fictional",
        -10.372043080676361
      ],
      [
        "Gull",
        -10.37243055819248
      ],
      [
        "79",
        -10.372501505667362
      ],
      [
        "step",
        -10.37321171597868
      ],
      [
        "CA",
        -10.373964688657242
      ],
      [
        "exception",
        -10.375384896230067
      ],
      [
        "etting",
        -10.376419380019263
      ],
      [
        "dates",
        -10.37722072488266
      ],
      [
        "Office",
        -10.37745818233871
      ],
      [
        "Dublin",
        -10.378327841461276
      ],
      [
        "politic",
        -10.378949751287962
      ],
      [
        "finds",
        -10.37957463590278
      ],
      [
        "exhibit",
        -10.38049978491576
      ],
      [
        "constant",
        -10.380695604891049
      ],
      [
        "certifie",
        -10.380695630584245
      ],
      [
        "Stephen",
        -10.380703798397482
      ],
      [
        "variation",
        -10.380711060914269
      ],
      [
        "pregnan",
        -10.380734952357894
      ],
      [
        "inspiration",
        -10.380765413518159
      ],
      [
        "benefit",
        -10.380835880283424
      ],
      [
        "opposition",
        -10.380921259236732
      ],
      [
        "download",
        -10.381043441316923
      ],
      [
        "substantial",
        -10.381082198343737
      ],
      [
        "Montana",
        -10.381163981381722
      ],
      [
        "Native",
        -10.38122591408655
      ],
      [
        "quite",
        -10.381319698260448
      ],
      [
        "equal",
        -10.381541638910853
      ],
      [
        "replacement",
        -10.381799271906413
      ],
      [
        "homes",
        -10.382046060885518
      ],
      [
        "von",
        -10.383188139042415
      ],
      [
        "NBC",
        -10.384203728433608
      ],
      [
        "Ra",
        -10.384390828437452
      ],
      [
        "pack",
        -10.385097277237406
      ],
      [
        "En",
        -10.385665270758906
      ],
      [
        "ble",
        -10.386214913999785
      ],
      [
        "map",
        -10.386589219649085
      ],
      [
        "10th",
        -10.387183178775597
      ],
      [
        "stem",
        -10.387713072446154
      ],
      [
        "distribution",
        -10.387719058212795
      ],
      [
        "prey",
        -10.387736655191098
      ],
      [
        "Homer",
        -10.388064910647646
      ],
      [
        "81",
        -10.388459052985976
      ],
      [
        "exchange",
        -10.389139939138706
      ],
      [
        "Alexand",
        -10.389378714781571
      ],
      [
        "easi",
        -10.389399369152073
      ],
      [
        "alien",
        -10.391260624258088
      ],
      [
        "dress",
        -10.391460010773859
      ],
      [
        "southeast",
        -10.392092410003869
      ],
      [
        "Mississippi",
        -10.392600218834616
      ],
      [
        "Trujill",
        -10.392600233197776
      ],
      [
        "Samuel",
        -10.392603256393386
      ],
      [
        "sequel",
        -10.392604198694837
      ],
      [
        "journey",
        -10.392684029315433
      ],
      [
        "reputation",
        -10.392693453778614
      ],
      [
        "franchise",
        -10.392874938175048
      ],
      [
        "Ridge",
        -10.393319365258927
      ],
      [
        "westward",
        -10.393472077938494
      ],
      [
        "plays",
        -10.39373252251277
      ],
      [
        "Snow",
        -10.393732824594181
      ],
      [
        "Critical",
        -10.393763528891816
      ],
      [
        "responsibilit",
        -10.394070427559997
      ],
      [
        "cycle",
        -10.39452170238497
      ],
      [
        "Activis",
        -10.394681505874662
      ],
      [
        "Ka",
        -10.395419481872384
      ],
      [
        "Stevens",
        -10.395642978820916
      ],
      [
        "Team",
        -10.396536617403232
      ],
      [
        "Men",
        -10.396586493374675
      ],
      [
        "defender",
        -10.3972569835306
      ],
      [
        "tory",
        -10.397837202515083
      ],
      [
        "PA",
        -10.398567512117697
      ],
      [
        "signing",
        -10.398749412205369
      ],
      [
        "ke",
        -10.398886423012726
      ],
      [
        "Friends",
        -10.400268181769338
      ],
      [
        "sell",
        -10.401652055008924
      ],
      [
        "bomb",
        -10.401762591114863
      ],
      [
        "Croatian",
        -10.402058427974694
      ],
      [
        "catch",
        -10.402608249800899
      ],
      [
        "signal",
        -10.402644667955524
      ],
      [
        "Norman",
        -10.403578258269983
      ],
      [
        "CO",
        -10.403975408305593
      ],
      [
        "Sap",
        -10.404441631595676
      ],
      [
        "doubt",
        -10.404631524729766
      ],
      [
        "romantic",
        -10.404650218886998
      ],
      [
        "valley",
        -10.404805704559013
      ],
      [
        "expansion",
        -10.405315335912432
      ],
      [
        "instance",
        -10.40926207794388
      ],
      [
        "charit",
        -10.409377334986214
      ],
      [
        "surrender",
        -10.409523024410138
      ],
      [
        "baby",
        -10.409870759257196
      ],
      [
        "churche",
        -10.409887308354747
      ],
      [
        "railway",
        -10.409986822793346
      ],
      [
        "Dann",
        -10.410306860095753
      ],
      [
        "Will",
        -10.410334434891157
      ],
      [
        "split",
        -10.411923690508386
      ],
      [
        "110",
        -10.412001018763908
      ],
      [
        "proper",
        -10.412792490082431
      ],
      [
        "hall",
        -10.41299839078831
      ],
      [
        "parliament",
        -10.413470915451704
      ],
      [
        "fine",
        -10.414305724534001
      ],
      [
        "Bana",
        -10.414640044172454
      ],
      [
        "handle",
        -10.414715941586834
      ],
      [
        "ntelligence",
        -10.415113285459176
      ],
      [
        "Com",
        -10.415167979568775
      ],
      [
        "earth",
        -10.415350307558432
      ],
      [
        "Mari",
        -10.41616837298131
      ],
      [
        "flag",
        -10.41630021388227
      ],
      [
        "−",
        -10.416843533549006
      ],
      [
        "application",
        -10.416844809908621
      ],
      [
        "Frederick",
        -10.41685236610617
      ],
      [
        "alternative",
        -10.416919822394469
      ],
      [
        "evil",
        -10.417256014873296
      ],
      [
        "organisation",
        -10.417262368079609
      ],
      [
        "department",
        -10.417272991108234
      ],
      [
        "recognition",
        -10.417324876584871
      ],
      [
        "Isabell",
        -10.417527163878525
      ],
      [
        "cult",
        -10.41766793432695
      ],
      [
        "attache",
        -10.418783479230498
      ],
      [
        "jev",
        -10.419037259107313
      ],
      [
        "ster",
        -10.419909976358923
      ],
      [
        "ray",
        -10.420158276127385
      ],
      [
        "bear",
        -10.420750618853223
      ],
      [
        "Roxa",
        -10.420770739543997
      ],
      [
        "tale",
        -10.420973133924473
      ],
      [
        "flat",
        -10.422144608487583
      ],
      [
        "pitcher",
        -10.42272243301327
      ],
      [
        "vary",
        -10.422771679076053
      ],
      [
        "Harris",
        -10.423695724211711
      ],
      [
        "Par",
        -10.425307029890181
      ],
      [
        "importan",
        -10.425364514086255
      ],
      [
        "sports",
        -10.426574332244014
      ],
      [
        "ocean",
        -10.426685343806188
      ],
      [
        "lake",
        -10.426877978750635
      ],
      [
        "reading",
        -10.42734045336246
      ],
      [
        "Rose",
        -10.427417593529345
      ],
      [
        "honour",
        -10.428527173678177
      ],
      [
        "Calvert",
        -10.42919006844653
      ],
      [
        "Stefan",
        -10.429190434908143
      ],
      [
        "portrait",
        -10.429194370420566
      ],
      [
        "expert",
        -10.429195220807081
      ],
      [
        "surprise",
        -10.429200171261776
      ],
      [
        "thirt",
        -10.429244422523931
      ],
      [
        "favorite",
        -10.429331256850105
      ],
      [
        "Order",
        -10.429414694921157
      ],
      [
        "Tower",
        -10.429500188573773
      ],
      [
        "monarch",
        -10.429843511944405
      ],
      [
        "aim",
        -10.429877506687898
      ],
      [
        "Hart",
        -10.429922211964534
      ],
      [
        "Maryl",
        -10.429925630071612
      ],
      [
        "puzzle",
        -10.430098165158231
      ],
      [
        "roads",
        -10.430335282070722
      ],
      [
        "canal",
        -10.431033751504991
      ],
      [
        "belt",
        -10.431072478818553
      ],
      [
        "battleship",
        -10.431082665861808
      ],
      [
        "iro",
        -10.431575917293273
      ],
      [
        "ik",
        -10.432164019648667
      ],
      [
        "Hugh",
        -10.432454387514685
      ],
      [
        "fun",
        -10.432712617631546
      ],
      [
        "govern",
        -10.432998332087845
      ],
      [
        "Santa",
        -10.433483237640242
      ],
      [
        "ki",
        -10.434442074241037
      ],
      [
        "drug",
        -10.434502889989172
      ],
      [
        "Or",
        -10.434860216361763
      ],
      [
        "consistent",
        -10.437745011156483
      ],
      [
        "UT",
        -10.437996494293442
      ],
      [
        "horn",
        -10.44018841749164
      ],
      [
        "pound",
        -10.441214281892936
      ],
      [
        "Alan",
        -10.441361910674608
      ],
      [
        "3D",
        -10.441508907512706
      ],
      [
        "ca",
        -10.441519675102601
      ],
      [
        "mechanic",
        -10.44169353072643
      ],
      [
        "squadron",
        -10.441724883400454
      ],
      [
        "jazz",
        -10.441729226762664
      ],
      [
        "Plunkett",
        -10.441773275575347
      ],
      [
        "crown",
        -10.441787184823951
      ],
      [
        "gu",
        -10.441789883738954
      ],
      [
        "afterward",
        -10.441939333685719
      ],
      [
        "convecti",
        -10.442152898185322
      ],
      [
        "moderate",
        -10.44333836713759
      ],
      [
        "Run",
        -10.443698627426595
      ],
      [
        "resource",
        -10.443902040029196
      ],
      [
        "symbol",
        -10.444426753262848
      ],
      [
        "add",
        -10.4451513932461
      ],
      [
        "ence",
        -10.446699843962993
      ],
      [
        "pursue",
        -10.446915141570477
      ],
      [
        "Mu",
        -10.447456949989592
      ],
      [
        "stable",
        -10.449072716617634
      ],
      [
        "compar",
        -10.449797806012704
      ],
      [
        "scholar",
        -10.450584926715369
      ],
      [
        "supporter",
        -10.451392782476546
      ],
      [
        "Argentin",
        -10.452479195654323
      ],
      [
        "identit",
        -10.452515207960804
      ],
      [
        "bit",
        -10.452738527830327
      ],
      [
        "convince",
        -10.453589853858965
      ],
      [
        "Atlant",
        -10.453738211244493
      ],
      [
        "ends",
        -10.454058723599651
      ],
      [
        "festival",
        -10.454347449409592
      ],
      [
        "predecessor",
        -10.45434752248934
      ],
      [
        "Colonel",
        -10.454373778101768
      ],
      [
        "Chronicle",
        -10.454417852513405
      ],
      [
        "chang",
        -10.454419701863696
      ],
      [
        "assistant",
        -10.454451054156705
      ],
      [
        "Duke",
        -10.454541427352817
      ],
      [
        "preparation",
        -10.454570945397196
      ],
      [
        "generate",
        -10.454833894398362
      ],
      [
        "manner",
        -10.454934736859288
      ],
      [
        "electric",
        -10.455763458187704
      ],
      [
        "Strand",
        -10.455796950287834
      ],
      [
        "conference",
        -10.456086702233161
      ],
      [
        "explore",
        -10.45632801916996
      ],
      [
        "1890",
        -10.456651493282685
      ],
      [
        "proceed",
        -10.456998119073486
      ],
      [
        "fold",
        -10.457050525366226
      ],
      [
        "firing",
        -10.457171030210953
      ],
      [
        "Tree",
        -10.457219467567088
      ],
      [
        "tribes",
        -10.457343555948736
      ],
      [
        "address",
        -10.457540298924492
      ],
      [
        "Po",
        -10.458240423700722
      ],
      [
        "rename",
        -10.459045815197012
      ],
      [
        "accident",
        -10.459753904190215
      ],
      [
        "Victoria",
        -10.460638702641997
      ],
      [
        "card",
        -10.46073485246168
      ],
      [
        "preferr",
        -10.460913820658888
      ],
      [
        "99",
        -10.461612382353959
      ],
      [
        "Pine",
        -10.461662855894307
      ],
      [
        "lap",
        -10.461667412565006
      ],
      [
        "founder",
        -10.461963004246792
      ],
      [
        "Ré",
        -10.462280626069944
      ],
      [
        "environment",
        -10.463577364796041
      ],
      [
        "coal",
        -10.463753709774815
      ],
      [
        "dismisse",
        -10.464528328419359
      ],
      [
        "trick",
        -10.466051972326348
      ],
      [
        "faith",
        -10.46715188751928
      ],
      [
        "diameter",
        -10.467225408305481
      ],
      [
        "dramatic",
        -10.467253996711591
      ],
      [
        "completion",
        -10.467297322961056
      ],
      [
        "regiment",
        -10.467791899968729
      ],
      [
        "pupil",
        -10.468173930482706
      ],
      [
        "Night",
        -10.468355957287356
      ],
      [
        "wicket",
        -10.468387191163462
      ],
      [
        "wors",
        -10.468654212571545
      ],
      [
        "adaptation",
        -10.468723470263198
      ],
      [
        "Top",
        -10.46934886745623
      ],
      [
        "iston",
        -10.469470191287623
      ],
      [
        "tourist",
        -10.470383118918651
      ],
      [
        "scholars",
        -10.470751546527982
      ],
      [
        "belong",
        -10.470928299538542
      ],
      [
        "earn",
        -10.471655407522675
      ],
      [
        "interchange",
        -10.471772122777262
      ],
      [
        "eeth",
        -10.47186912733464
      ],
      [
        "cool",
        -10.472665555851849
      ],
      [
        "Press",
        -10.47409132276691
      ],
      [
        "Just",
        -10.474683034629859
      ],
      [
        "tactic",
        -10.475009542879254
      ],
      [
        "bond",
        -10.475265798796086
      ],
      [
        "joint",
        -10.475381193593016
      ],
      [
        "gone",
        -10.475485596097219
      ],
      [
        "epression",
        -10.475542130655947
      ],
      [
        "elevision",
        -10.476153802535968
      ],
      [
        "remix",
        -10.47619221346995
      ],
      [
        "evening",
        -10.477600483254502
      ],
      [
        "Aston",
        -10.477773380635437
      ],
      [
        "publisher",
        -10.478924523702323
      ],
      [
        "worship",
        -10.479174333667299
      ],
      [
        "Fame",
        -10.479719988985671
      ],
      [
        "volunteer",
        -10.480154966247337
      ],
      [
        "monitor",
        -10.480158766963523
      ],
      [
        "sudden",
        -10.480164205553553
      ],
      [
        "Jifn",
        -10.480184315283417
      ],
      [
        "restrict",
        -10.480328284395362
      ],
      [
        "Transport",
        -10.48065287330114
      ],
      [
        "Plot",
        -10.48121048196225
      ],
      [
        "authors",
        -10.48223803945103
      ],
      [
        "crest",
        -10.482616231315697
      ],
      [
        "stoppe",
        -10.483970255364241
      ],
      [
        "soul",
        -10.483993049188726
      ],
      [
        "curve",
        -10.484118466238844
      ],
      [
        "NS",
        -10.485959833267408
      ],
      [
        "classe",
        -10.486614108862284
      ],
      [
        "notice",
        -10.486907584933265
      ],
      [
        "Carl",
        -10.487454244521755
      ],
      [
        "theater",
        -10.487735880068495
      ],
      [
        "runner",
        -10.487858170259333
      ],
      [
        "Independent",
        -10.488199876045785
      ],
      [
        "71",
        -10.488464756573968
      ],
      [
        "ular",
        -10.48919076715675
      ],
      [
        "ack",
        -10.489202567280696
      ],
      [
        "08",
        -10.48975815633916
      ],
      [
        "Fish",
        -10.489824271573632
      ],
      [
        "visibl",
        -10.49037767155259
      ],
      [
        "champion",
        -10.49102792080453
      ],
      [
        "isolate",
        -10.491209128569142
      ],
      [
        "spirit",
        -10.492011411893738
      ],
      [
        "desert",
        -10.492258203091826
      ],
      [
        "Back",
        -10.492290496361173
      ],
      [
        "peake",
        -10.492657808985612
      ],
      [
        "Jerusalem",
        -10.493312861100371
      ],
      [
        "turret",
        -10.493317214203683
      ],
      [
        "Netherland",
        -10.493341677138769
      ],
      [
        "Wolf",
        -10.493365365733183
      ],
      [
        "Carol",
        -10.493429096867914
      ],
      [
        "175",
        -10.493691859758401
      ],
      [
        "squad",
        -10.494537170291002
      ],
      [
        "bone",
        -10.49486967670195
      ],
      [
        "88",
        -10.49492019589163
      ],
      [
        "liv",
        -10.495107006181058
      ],
      [
        "europ",
        -10.495220364049306
      ],
      [
        "recognise",
        -10.495250916305285
      ],
      [
        "ius",
        -10.495442731349467
      ],
      [
        "Dail",
        -10.496410252704699
      ],
      [
        "dissipate",
        -10.49692788801369
      ],
      [
        "programme",
        -10.497130521603182
      ],
      [
        "07",
        -10.497798220904027
      ],
      [
        "regional",
        -10.498397438422357
      ],
      [
        "Isle",
        -10.498999076571478
      ],
      [
        "Richards",
        -10.49912092873016
      ],
      [
        "Hamil",
        -10.499933863233352
      ],
      [
        "Adam",
        -10.500205094928297
      ],
      [
        "admitted",
        -10.500214710777886
      ],
      [
        "Wilde",
        -10.500236632986244
      ],
      [
        "intensifi",
        -10.500389189566466
      ],
      [
        "coup",
        -10.501207740429876
      ],
      [
        "Francisc",
        -10.501364458257083
      ],
      [
        "patron",
        -10.502196099588819
      ],
      [
        "diff",
        -10.502219226941174
      ],
      [
        "camps",
        -10.502910807491272
      ],
      [
        "Han",
        -10.503016606073837
      ],
      [
        "Bri",
        -10.503676288174557
      ],
      [
        "Sol",
        -10.504034666799816
      ],
      [
        "eath",
        -10.50424004252923
      ],
      [
        "Base",
        -10.50468996429737
      ],
      [
        "employe",
        -10.504985216626974
      ],
      [
        "happ",
        -10.505853073014386
      ],
      [
        "expens",
        -10.505886336750734
      ],
      [
        "×",
        -10.506646194287153
      ],
      [
        "criminal",
        -10.506646888391996
      ],
      [
        "context",
        -10.506698275575662
      ],
      [
        "contribution",
        -10.50671854350614
      ],
      [
        "altar",
        -10.506727519193262
      ],
      [
        "wrong",
        -10.506729351007838
      ],
      [
        "Kilmer",
        -10.506740648226609
      ],
      [
        "colonial",
        -10.50677377256602
      ],
      [
        "initiative",
        -10.50698852504821
      ],
      [
        "eliminate",
        -10.507071626533218
      ],
      [
        "segment",
        -10.50740697377733
      ],
      [
        "Carter",
        -10.507424141564293
      ],
      [
        "bright",
        -10.507488164182726
      ],
      [
        "governor",
        -10.507978379758198
      ],
      [
        "Writing",
        -10.508518498069456
      ],
      [
        "fair",
        -10.508880404243126
      ],
      [
        "demonstrate",
        -10.510317847839449
      ],
      [
        "Mc",
        -10.5104019475949
      ],
      [
        "Modern",
        -10.511107730568645
      ],
      [
        "intention",
        -10.511118070278632
      ],
      [
        "cal",
        -10.511364511442746
      ],
      [
        "twin",
        -10.512720049818524
      ],
      [
        "sort",
        -10.51284433926474
      ],
      [
        "discusse",
        -10.512966796119864
      ],
      [
        "researcher",
        -10.51321150930437
      ],
      [
        "termin",
        -10.513353379284307
      ],
      [
        "Clarks",
        -10.514456422597576
      ],
      [
        "Col",
        -10.515987651933067
      ],
      [
        "reinforce",
        -10.518255066428509
      ],
      [
        "here",
        -10.518483408168585
      ],
      [
        "offering",
        -10.51860088235465
      ],
      [
        "Archaeolog",
        -10.518740898688542
      ],
      [
        "categor",
        -10.519054893210768
      ],
      [
        "WW",
        -10.519203171269947
      ],
      [
        "comprise",
        -10.519206779223733
      ],
      [
        "strateg",
        -10.519240493411404
      ],
      [
        "Spring",
        -10.519366543150706
      ],
      [
        "register",
        -10.520160167928216
      ],
      [
        "Rifle",
        -10.520165406302763
      ],
      [
        "knock",
        -10.520232871132949
      ],
      [
        "Chief",
        -10.520322985236115
      ],
      [
        "Point",
        -10.520363974415258
      ],
      [
        "electronic",
        -10.520464171936382
      ],
      [
        "sance",
        -10.5205940370738
      ],
      [
        "Ryan",
        -10.520958056303058
      ],
      [
        "warning",
        -10.521698611055395
      ],
      [
        "Color",
        -10.521708286191437
      ],
      [
        "shark",
        -10.521792162935256
      ],
      [
        "trouble",
        -10.522221376819866
      ],
      [
        "loan",
        -10.522466936794721
      ],
      [
        "install",
        -10.522550456760515
      ],
      [
        "realit",
        -10.523056599401372
      ],
      [
        "Am",
        -10.52305974243372
      ],
      [
        "accuse",
        -10.524844508624902
      ],
      [
        "1900",
        -10.52567183872675
      ],
      [
        "Cape",
        -10.528050455207435
      ],
      [
        "ger",
        -10.52823686475261
      ],
      [
        "responde",
        -10.52934396240746
      ],
      [
        "cease",
        -10.52987782027145
      ],
      [
        "Bell",
        -10.530004485997528
      ],
      [
        "recruit",
        -10.53072794557655
      ],
      [
        "Marl",
        -10.53144430824365
      ],
      [
        "resemble",
        -10.531860198803129
      ],
      [
        "ge",
        -10.532572323796831
      ],
      [
        "pitche",
        -10.53342285699184
      ],
      [
        "driver",
        -10.533582811416183
      ],
      [
        "scientist",
        -10.533858338089175
      ],
      [
        "Square",
        -10.533861001009255
      ],
      [
        "Type",
        -10.533864275158336
      ],
      [
        "dialogue",
        -10.534012751482244
      ],
      [
        "lbw",
        -10.534015865822507
      ],
      [
        "anniversar",
        -10.53434439446951
      ],
      [
        "Jean",
        -10.534390576622933
      ],
      [
        "09",
        -10.534941837906771
      ],
      [
        "lift",
        -10.535134542816811
      ],
      [
        "internal",
        -10.535396900805818
      ],
      [
        "cloud",
        -10.535580097300816
      ],
      [
        "substitute",
        -10.535775854508612
      ],
      [
        "earning",
        -10.536083109565954
      ],
      [
        "SA",
        -10.536150397128509
      ],
      [
        "exercise",
        -10.536348677870954
      ],
      [
        "Castle",
        -10.536884331608178
      ],
      [
        "Jesu",
        -10.536944033672562
      ],
      [
        "classic",
        -10.537233051189435
      ],
      [
        "Adams",
        -10.53728497548109
      ],
      [
        "67",
        -10.539782858567985
      ],
      [
        "DS",
        -10.539887678730839
      ],
      [
        "See",
        -10.539918720884634
      ],
      [
        "olí",
        -10.540540835480737
      ],
      [
        "ía",
        -10.540590860558984
      ],
      [
        "ox",
        -10.540861460361361
      ],
      [
        "divers",
        -10.540951938804577
      ],
      [
        "grey",
        -10.54105254875627
      ],
      [
        "Johnston",
        -10.541207918155717
      ],
      [
        "Iron",
        -10.541208350231097
      ],
      [
        "documentar",
        -10.54141616265953
      ],
      [
        "Test",
        -10.541443837859592
      ],
      [
        "ize",
        -10.542145776769377
      ],
      [
        "ruin",
        -10.543215932181981
      ],
      [
        "stick",
        -10.543895885124176
      ],
      [
        "bearing",
        -10.545444471818493
      ],
      [
        "í",
        -10.546399086531594
      ],
      [
        "inform",
        -10.546854393872765
      ],
      [
        "cloth",
        -10.547675862004544
      ],
      [
        "guilt",
        -10.547751366994563
      ],
      [
        "Cambridge",
        -10.547768972964043
      ],
      [
        "opposite",
[...]
